{
  "version": "1.0",
  "truncation": null,
  "padding": null,
  "added_tokens": [
    {
      "id": 0,
      "content": "[UNK]",
      "single_word": false,
      "lstrip": false,
      "rstrip": false,
      "normalized": false,
      "special": true
    },
    {
      "id": 1,
      "content": "[CLS]",
      "single_word": false,
      "lstrip": false,
      "rstrip": false,
      "normalized": false,
      "special": true
    },
    {
      "id": 2,
      "content": "[SEP]",
      "single_word": false,
      "lstrip": false,
      "rstrip": false,
      "normalized": false,
      "special": true
    },
    {
      "id": 3,
      "content": "[PAD]",
      "single_word": false,
      "lstrip": false,
      "rstrip": false,
      "normalized": false,
      "special": true
    },
    {
      "id": 4,
      "content": "[MASK]",
      "single_word": false,
      "lstrip": false,
      "rstrip": false,
      "normalized": false,
      "special": true
    }
  ],
  "normalizer": null,
  "pre_tokenizer": {
    "type": "Whitespace"
  },
  "post_processor": null,
  "decoder": null,
  "model": {
    "type": "BPE",
    "dropout": null,
    "unk_token": "[UNK]",
    "continuing_subword_prefix": null,
    "end_of_word_suffix": null,
    "fuse_unk": false,
    "byte_fallback": false,
    "ignore_merges": false,
    "vocab": {
      "[UNK]": 0,
      "[CLS]": 1,
      "[SEP]": 2,
      "[PAD]": 3,
      "[MASK]": 4,
      "0": 5,
      "1": 6,
      "2": 7,
      "3": 8,
      "4": 9,
      "5": 10,
      "6": 11,
      "9": 12,
      "<": 13,
      ">": 14,
      "M": 15,
      "N": 16,
      "U": 17,
      "a": 18,
      "b": 19,
      "c": 20,
      "d": 21,
      "e": 22,
      "f": 23,
      "g": 24,
      "h": 25,
      "i": 26,
      "j": 27,
      "k": 28,
      "l": 29,
      "m": 30,
      "n": 31,
      "o": 32,
      "p": 33,
      "q": 34,
      "r": 35,
      "s": 36,
      "t": 37,
      "u": 38,
      "v": 39,
      "w": 40,
      "x": 41,
      "y": 42,
      "z": 43,
      "á": 44,
      "ç": 45,
      "ê": 46,
      "α": 47,
      "а": 48,
      "б": 49,
      "в": 50,
      "г": 51,
      "д": 52,
      "е": 53,
      "ж": 54,
      "з": 55,
      "и": 56,
      "й": 57,
      "к": 58,
      "л": 59,
      "м": 60,
      "н": 61,
      "о": 62,
      "п": 63,
      "р": 64,
      "с": 65,
      "т": 66,
      "у": 67,
      "ф": 68,
      "х": 69,
      "ц": 70,
      "ч": 71,
      "ш": 72,
      "щ": 73,
      "ъ": 74,
      "ы": 75,
      "ь": 76,
      "э": 77,
      "ю": 78,
      "я": 79,
      "ё": 80,
      "ст": 81,
      "ов": 82,
      "ен": 83,
      "ра": 84,
      "но": 85,
      "ко": 86,
      "на": 87,
      "ро": 88,
      "ни": 89,
      "ли": 90,
      "ны": 91,
      "по": 92,
      "ре": 93,
      "те": 94,
      "го": 95,
      "ль": 96,
      "ле": 97,
      "то": 98,
      "та": 99,
      "ки": 100,
      "ка": 101,
      "ени": 102,
      "ми": 103,
      "ти": 104,
      "ер": 105,
      "ло": 106,
      "ова": 107,
      "ри": 108,
      "об": 109,
      "мо": 110,
      "ди": 111,
      "ва": 112,
      "во": 113,
      "да": 114,
      "NU": 115,
      "NUM": 116,
      "ру": 117,
      "ть": 118,
      "ци": 119,
      "че": 120,
      "за": 121,
      "си": 122,
      "уч": 123,
      "ла": 124,
      "не": 125,
      "ме": 126,
      "ных": 127,
      "ско": 128,
      "про": 129,
      "ма": 130,
      "со": 131,
      "де": 132,
      "ги": 133,
      "бо": 134,
      "ис": 135,
      "сти": 136,
      "ет": 137,
      "раз": 138,
      "ся": 139,
      "ного": 140,
      "ры": 141,
      "ви": 142,
      "вы": 143,
      "ста": 144,
      "ения": 145,
      "ски": 146,
      "ве": 147,
      "ные": 148,
      "ля": 149,
      "до": 150,
      "пре": 151,
      "га": 152,
      "ной": 153,
      "па": 154,
      "са": 155,
      "пе": 156,
      "ют": 157,
      "ку": 158,
      "мен": 159,
      "при": 160,
      "сле": 161,
      "нов": 162,
      "ты": 163,
      "ем": 164,
      "тель": 165,
      "из": 166,
      "след": 167,
      "су": 168,
      "пу": 169,
      "ств": 170,
      "овани": 171,
      "сто": 172,
      "жи": 173,
      "се": 174,
      "би": 175,
      "хо": 176,
      "ков": 177,
      "ту": 178,
      "ров": 179,
      "щи": 180,
      "торы": 181,
      "сть": 182,
      "фо": 183,
      "чески": 184,
      "исслед": 185,
      "мы": 186,
      "ран": 187,
      "му": 188,
      "ского": 189,
      "кти": 190,
      "тов": 191,
      "от": 192,
      "логи": 193,
      "ду": 194,
      "ин": 195,
      "чи": 196,
      "ще": 197,
      "ный": 198,
      "ены": 199,
      "ение": 200,
      "ции": 201,
      "ча": 202,
      "под": 203,
      "кон": 204,
      "пи": 205,
      "науч": 206,
      "сси": 207,
      "ну": 208,
      "рабо": 209,
      "ан": 210,
      "фе": 211,
      "же": 212,
      "вер": 213,
      "бе": 214,
      "ав": 215,
      "лю": 216,
      "ность": 217,
      "которы": 218,
      "ей": 219,
      "ности": 220,
      "ген": 221,
      "лов": 222,
      "пред": 223,
      "учены": 224,
      "ды": 225,
      "ктив": 226,
      "рова": 227,
      "зы": 228,
      "соб": 229,
      "пер": 230,
      "тор": 231,
      "гу": 232,
      "фи": 233,
      "ющи": 234,
      "рас": 235,
      "ба": 236,
      "ря": 237,
      "ши": 238,
      "зи": 239,
      "тра": 240,
      "дер": 241,
      "ек": 242,
      "уча": 243,
      "ования": 244,
      "бли": 245,
      "ке": 246,
      "ствен": 247,
      "пов": 248,
      "нау": 249,
      "сь": 250,
      "дить": 251,
      "это": 252,
      "росси": 253,
      "од": 254,
      "лен": 255,
      "цен": 256,
      "бу": 257,
      "тех": 258,
      "ней": 259,
      "сов": 260,
      "ния": 261,
      "ческих": 262,
      "спе": 263,
      "ых": 264,
      "зу": 265,
      "мер": 266,
      "ор": 267,
      "био": 268,
      "пол": 269,
      "кова": 270,
      "ска": 271,
      "обсу": 272,
      "опу": 273,
      "це": 274,
      "образ": 275,
      "ской": 276,
      "ная": 277,
      "ня": 278,
      "ком": 279,
      "ется": 280,
      "обсудить": 281,
      "гра": 282,
      "пра": 283,
      "аль": 284,
      "спо": 285,
      "воз": 286,
      "держ": 287,
      "ученые": 288,
      "так": 289,
      "кле": 290,
      "лек": 291,
      "также": 292,
      "ства": 293,
      "дов": 294,
      "ную": 295,
      "стро": 296,
      "тро": 297,
      "ха": 298,
      "ос": 299,
      "каза": 300,
      "им": 301,
      "ления": 302,
      "уни": 303,
      "фор": 304,
      "исследова": 305,
      "бликова": 306,
      "смо": 307,
      "ным": 308,
      "опубликова": 309,
      "ше": 310,
      "проек": 311,
      "эк": 312,
      "том": 313,
      "тели": 314,
      "орга": 315,
      "сло": 316,
      "ство": 317,
      "ений": 318,
      "ние": 319,
      "зна": 320,
      "св": 321,
      "нологи": 322,
      "сите": 323,
      "зо": 324,
      "тер": 325,
      "россий": 326,
      "род": 327,
      "низ": 328,
      "точ": 329,
      "тка": 330,
      "ша": 331,
      "технологи": 332,
      "ном": 333,
      "помо": 334,
      "ются": 335,
      "ые": 336,
      "поль": 337,
      "зыва": 338,
      "лу": 339,
      "цио": 340,
      "кры": 341,
      "ное": 342,
      "тия": 343,
      "ными": 344,
      "исполь": 345,
      "пере": 346,
      "ic": 347,
      "сте": 348,
      "актив": 349,
      "кро": 350,
      "исследования": 351,
      "еди": 352,
      "ция": 353,
      "меди": 354,
      "гру": 355,
      "пла": 356,
      "ск": 357,
      "универ": 358,
      "ща": 359,
      "хи": 360,
      "ден": 361,
      "стоя": 362,
      "которые": 363,
      "тери": 364,
      "in": 365,
      "гран": 366,
      "ческого": 367,
      "боле": 368,
      "поддерж": 369,
      "разрабо": 370,
      "дру": 371,
      "жа": 372,
      "пы": 373,
      "поз": 374,
      "став": 375,
      "свя": 376,
      "университе": 377,
      "пров": 378,
      "вре": 379,
      "тя": 380,
      "ффе": 381,
      "льта": 382,
      "at": 383,
      "ге": 384,
      "резу": 385,
      "автор": 386,
      "способ": 387,
      "результа": 388,
      "нда": 389,
      "эффе": 390,
      "лей": 391,
      "кото": 392,
      "центра": 393,
      "зда": 394,
      "нер": 395,
      "ью": 396,
      "позво": 397,
      "сво": 398,
      "моде": 399,
      "ru": 400,
      "сни": 401,
      "мин": 402,
      "жен": 403,
      "рес": 404,
      "тори": 405,
      "ких": 406,
      "ению": 407,
      "высо": 408,
      "авторы": 409,
      "нк": 410,
      "сту": 411,
      "имени": 412,
      "or": 413,
      "тре": 414,
      "нали": 415,
      "ству": 416,
      "науки": 417,
      "фер": 418,
      "стра": 419,
      "ника": 420,
      "гла": 421,
      "лы": 422,
      "ях": 423,
      "стру": 424,
      "ться": 425,
      "созда": 426,
      "университета": 427,
      "ении": 428,
      "ование": 429,
      "пло": 430,
      "ву": 431,
      "оди": 432,
      "ят": 433,
      "использ": 434,
      "жд": 435,
      "кси": 436,
      "нф": 437,
      "тера": 438,
      "мыш": 439,
      "нные": 440,
      "рнф": 441,
      "сер": 442,
      "тем": 443,
      "сре": 444,
      "ющих": 445,
      "биологи": 446,
      "опубликовано": 447,
      "ников": 448,
      "нных": 449,
      "соеди": 450,
      "разви": 451,
      "прав": 452,
      "ар": 453,
      "имен": 454,
      "сы": 455,
      "обла": 456,
      "ческой": 457,
      "дей": 458,
      "пара": 459,
      "гене": 460,
      "медици": 461,
      "ой": 462,
      "стви": 463,
      "льного": 464,
      "ских": 465,
      "кур": 466,
      "ющие": 467,
      "нару": 468,
      "которых": 469,
      "ление": 470,
      "три": 471,
      "дро": 472,
      "ник": 473,
      "кар": 474,
      "экс": 475,
      "други": 476,
      "тки": 477,
      "боль": 478,
      "dic": 479,
      "физ": 480,
      "лось": 481,
      "дар": 482,
      "врем": 483,
      "эффектив": 484,
      "ца": 485,
      "ход": 486,
      "поддержан": 487,
      "яв": 488,
      "нее": 489,
      "хими": 490,
      "ator": 491,
      "стем": 492,
      "систем": 493,
      "груп": 494,
      "физи": 495,
      "тру": 496,
      "ус": 497,
      "чен": 498,
      "ники": 499,
      "ститу": 500,
      "институ": 501,
      "гут": 502,
      "indic": 503,
      "грантом": 504,
      "поддержанного": 505,
      "indicator": 506,
      "тных": 507,
      "цы": 508,
      "энер": 509,
      "номи": 510,
      "пример": 511,
      "ев": 512,
      "фу": 513,
      "вать": 514,
      "научного": 515,
      "мма": 516,
      "тив": 517,
      "объ": 518,
      "веще": 519,
      "основ": 520,
      "экспер": 521,
      "кту": 522,
      "льных": 523,
      "одна": 524,
      "али": 525,
      "емо": 526,
      "тр": 527,
      "лия": 528,
      "показа": 529,
      "мож": 530,
      "руков": 531,
      "дол": 532,
      "преде": 533,
      "бел": 534,
      "получ": 535,
      "проекта": 536,
      "результаты": 537,
      "соедин": 538,
      "жу": 539,
      "лись": 540,
      "госу": 541,
      "ток": 542,
      "пера": 543,
      "ходи": 544,
      "фонда": 545,
      "ственного": 546,
      "государ": 547,
      "исто": 548,
      "клю": 549,
      "сен": 550,
      "юще": 551,
      "бора": 552,
      "организ": 553,
      "гов": 554,
      "чения": 555,
      "рак": 556,
      "года": 557,
      "леку": 558,
      "молеку": 559,
      "откры": 560,
      "конкур": 561,
      "лови": 562,
      "особ": 563,
      "чных": 564,
      "ровать": 565,
      "помощ": 566,
      "жения": 567,
      "лет": 568,
      "ках": 569,
      "вос": 570,
      "син": 571,
      "возмож": 572,
      "бря": 573,
      "кра": 574,
      "кой": 575,
      "кол": 576,
      "ний": 577,
      "нима": 578,
      "мета": 579,
      "института": 580,
      "космо": 581,
      "микро": 582,
      "моло": 583,
      "важ": 584,
      "мето": 585,
      "труд": 586,
      "помощью": 587,
      "анали": 588,
      "бы": 589,
      "сл": 590,
      "льной": 591,
      "кисло": 592,
      "ческие": 593,
      "расска": 594,
      "исследователи": 595,
      "тен": 596,
      "рода": 597,
      "проце": 598,
      "технологий": 599,
      "руководи": 600,
      "гли": 601,
      "эко": 602,
      "стран": 603,
      "кие": 604,
      "вод": 605,
      "челов": 606,
      "ский": 607,
      "участ": 608,
      "которо": 609,
      "процес": 610,
      "ктор": 611,
      "сми": 612,
      "вают": 613,
      "сколь": 614,
      "станов": 615,
      "россии": 616,
      "буду": 617,
      "позволя": 618,
      "использова": 619,
      "терапи": 620,
      "услови": 621,
      "диа": 622,
      "мати": 623,
      "исследовани": 624,
      "однако": 625,
      "er": 626,
      "опреде": 627,
      "пис": 628,
      "эти": 629,
      "косми": 630,
      "теля": 631,
      "жили": 632,
      "буд": 633,
      "разработа": 634,
      "бла": 635,
      "ого": 636,
      "ску": 637,
      "сты": 638,
      "обнару": 639,
      "наук": 640,
      "вне": 641,
      "зе": 642,
      "кла": 643,
      "нова": 644,
      "могут": 645,
      "вания": 646,
      "этому": 647,
      "темпера": 648,
      "температу": 649,
      "зве": 650,
      "спу": 651,
      "тся": 652,
      "чис": 653,
      "мос": 654,
      "разли": 655,
      "стави": 656,
      "тельно": 657,
      "ученых": 658,
      "грам": 659,
      "органи": 660,
      "например": 661,
      "лабора": 662,
      "будди": 663,
      "астро": 664,
      "оказа": 665,
      "фа": 666,
      "нии": 667,
      "ровали": 668,
      "российского": 669,
      "тября": 670,
      "пти": 671,
      "пси": 672,
      "рна": 673,
      "поли": 674,
      "реги": 675,
      "заболе": 676,
      "произ": 677,
      "матери": 678,
      "зывает": 679,
      "спут": 680,
      "вз": 681,
      "дра": 682,
      "мно": 683,
      "циаль": 684,
      "сотруд": 685,
      "выя": 686,
      "мента": 687,
      "новые": 688,
      "комп": 689,
      "клеток": 690,
      "структу": 691,
      "моз": 692,
      "состоя": 693,
      "куль": 694,
      "живо": 695,
      "прове": 696,
      "тории": 697,
      "руководитель": 698,
      "грес": 699,
      "нен": 700,
      "эпи": 701,
      "наб": 702,
      "поэтому": 703,
      "телей": 704,
      "моск": 705,
      "меж": 706,
      "измен": 707,
      "работа": 708,
      "предло": 709,
      "государственного": 710,
      "йства": 711,
      "чной": 712,
      "циен": 713,
      "учи": 714,
      "пациен": 715,
      "повре": 716,
      "нейро": 717,
      "время": 718,
      "журна": 719,
      "наблю": 720,
      "бро": 721,
      "влия": 722,
      "зем": 723,
      "нной": 724,
      "ори": 725,
      "стве": 726,
      "научно": 727,
      "ностью": 728,
      "звез": 729,
      "co": 730,
      "оста": 731,
      "чер": 732,
      "ниру": 733,
      "послед": 734,
      "тие": 735,
      "даль": 736,
      "ском": 737,
      "препара": 738,
      "логии": 739,
      "инте": 740,
      "кроме": 741,
      "области": 742,
      "es": 743,
      "чение": 744,
      "рая": 745,
      "направ": 746,
      "льно": 747,
      "мет": 748,
      "вых": 749,
      "веду": 750,
      "суще": 751,
      "научных": 752,
      "вели": 753,
      "части": 754,
      "эксперимен": 755,
      "материа": 756,
      "алек": 757,
      "луч": 758,
      "нд": 759,
      "ом": 760,
      "рные": 761,
      "уров": 762,
      "цени": 763,
      "ый": 764,
      "стов": 765,
      "ением": 766,
      "обе": 767,
      "цию": 768,
      "форми": 769,
      "опубликованы": 770,
      "других": 771,
      "рассказывает": 772,
      "жда": 773,
      "зов": 774,
      "оцени": 775,
      "рав": 776,
      "коло": 777,
      "год": 778,
      "кан": 779,
      "пар": 780,
      "чита": 781,
      "повы": 782,
      "циона": 783,
      "сентября": 784,
      "al": 785,
      "кли": 786,
      "мов": 787,
      "рования": 788,
      "сли": 789,
      "поло": 790,
      "реш": 791,
      "регу": 792,
      "мас": 793,
      "держа": 794,
      "связа": 795,
      "мышей": 796,
      "животных": 797,
      "дения": 798,
      "све": 799,
      "ради": 800,
      "мина": 801,
      "моно": 802,
      "вали": 803,
      "ций": 804,
      "дера": 805,
      "вые": 806,
      "стар": 807,
      "самы": 808,
      "прия": 809,
      "ствова": 810,
      "анти": 811,
      "терапии": 812,
      "ar": 813,
      "кров": 814,
      "ктери": 815,
      "реа": 816,
      "льные": 817,
      "необ": 818,
      "виде": 819,
      "видов": 820,
      "саха": 821,
      "новых": 822,
      "планиру": 823,
      "больш": 824,
      "культу": 825,
      "дальней": 826,
      "an": 827,
      "стре": 828,
      "енные": 829,
      "рам": 830,
      "програм": 831,
      "федера": 832,
      "бактери": 833,
      "модель": 834,
      "энерги": 835,
      "случа": 836,
      "журнале": 837,
      "бле": 838,
      "дли": 839,
      "дре": 840,
      "доб": 841,
      "поле": 842,
      "вой": 843,
      "зации": 844,
      "разных": 845,
      "ческий": 846,
      "научный": 847,
      "представ": 848,
      "ших": 849,
      "практи": 850,
      "позволи": 851,
      "генера": 852,
      "функ": 853,
      "синте": 854,
      "челове": 855,
      "буддий": 856,
      "комплек": 857,
      "en": 858,
      "лся": 859,
      "ремен": 860,
      "каль": 861,
      "вари": 862,
      "меро": 863,
      "меха": 864,
      "бор": 865,
      "который": 866,
      "значи": 867,
      "истори": 868,
      "особен": 869,
      "колле": 870,
      "регио": 871,
      "ch": 872,
      "ro": 873,
      "глу": 874,
      "име": 875,
      "кор": 876,
      "народ": 877,
      "обо": 878,
      "водо": 879,
      "ская": 880,
      "выясни": 881,
      "москва": 882,
      "поврежд": 883,
      "механиз": 884,
      "все": 885,
      "жиз": 886,
      "кру": 887,
      "уда": 888,
      "ранее": 889,
      "лиру": 890,
      "потен": 891,
      "готов": 892,
      "тора": 893,
      "обще": 894,
      "дав": 895,
      "рус": 896,
      "мети": 897,
      "доста": 898,
      "контро": 899,
      "генов": 900,
      "представи": 901,
      "фибро": 902,
      "исследователь": 903,
      "ткани": 904,
      "действи": 905,
      "ракет": 906,
      "метров": 907,
      "ую": 908,
      "шем": 909,
      "стей": 910,
      "лечения": 911,
      "таких": 912,
      "тий": 913,
      "ователь": 914,
      "вание": 915,
      "простран": 916,
      "деся": 917,
      "гамма": 918,
      "пато": 919,
      "генети": 920,
      "этих": 921,
      "достаточ": 922,
      "ac": 923,
      "mo": 924,
      "опис": 925,
      "слу": 926,
      "твер": 927,
      "хе": 928,
      "рач": 929,
      "кого": 930,
      "роско": 931,
      "лег": 932,
      "вая": 933,
      "изве": 934,
      "пуск": 935,
      "фору": 936,
      "дународ": 937,
      "форма": 938,
      "цион": 939,
      "системы": 940,
      "молоды": 941,
      "международ": 942,
      "обеспе": 943,
      "мероприя": 944,
      "ii": 945,
      "us": 946,
      "бри": 947,
      "гре": 948,
      "дение": 949,
      "много": 950,
      "язы": 951,
      "раст": 952,
      "торов": 953,
      "ерх": 954,
      "зада": 955,
      "мар": 956,
      "содержа": 957,
      "щих": 958,
      "работы": 959,
      "участи": 960,
      "поверх": 961,
      "прави": 962,
      "терри": 963,
      "технологии": 964,
      "которая": 965,
      "площа": 966,
      "развития": 967,
      "условиях": 968,
      "астрономи": 969,
      "ат": 970,
      "ит": 971,
      "нах": 972,
      "ром": 973,
      "такие": 974,
      "пробле": 975,
      "дом": 976,
      "само": 977,
      "конгрес": 978,
      "спек": 979,
      "специ": 980,
      "клеточ": 981,
      "ключа": 982,
      "сотрудник": 983,
      "рамках": 984,
      "извест": 985,
      "вс": 986,
      "днк": 987,
      "ита": 988,
      "рование": 989,
      "уг": 990,
      "чные": 991,
      "шли": 992,
      "енных": 993,
      "ким": 994,
      "води": 995,
      "зави": 996,
      "российской": 997,
      "использу": 998,
      "именно": 999,
      "ющего": 1000,
      "планируем": 1001,
      "зависи": 1002,
      "ал": 1003,
      "вет": 1004,
      "около": 1005,
      "элек": 1006,
      "коли": 1007,
      "наи": 1008,
      "поня": 1009,
      "тации": 1010,
      "дина": 1011,
      "дире": 1012,
      "данные": 1013,
      "исследование": 1014,
      "опухо": 1015,
      "спор": 1016,
      "клетки": 1017,
      "модели": 1018,
      "фермен": 1019,
      "медицин": 1020,
      "явля": 1021,
      "основе": 1022,
      "позволяет": 1023,
      "исследований": 1024,
      "благода": 1025,
      "производ": 1026,
      "пациентов": 1027,
      "og": 1028,
      "вра": 1029,
      "сова": 1030,
      "шко": 1031,
      "шта": 1032,
      "шей": 1033,
      "стри": 1034,
      "лин": 1035,
      "попу": 1036,
      "ресу": 1037,
      "ван": 1038,
      "вает": 1039,
      "лага": 1040,
      "ское": 1041,
      "проду": 1042,
      "кус": 1043,
      "пуска": 1044,
      "стой": 1045,
      "концентра": 1046,
      "бело": 1047,
      "техни": 1048,
      "графи": 1049,
      "болез": 1050,
      "конкурса": 1051,
      "экономи": 1052,
      "оказалось": 1053,
      "алексе": 1054,
      "необходи": 1055,
      "вариан": 1056,
      "площад": 1057,
      "благодаря": 1058,
      "дви": 1059,
      "лли": 1060,
      "тран": 1061,
      "чно": 1062,
      "шен": 1063,
      "лиза": 1064,
      "тах": 1065,
      "каче": 1066,
      "восто": 1067,
      "мести": 1068,
      "дела": 1069,
      "ские": 1070,
      "сам": 1071,
      "рован": 1072,
      "ющий": 1073,
      "шие": 1074,
      "держи": 1075,
      "ственных": 1076,
      "наука": 1077,
      "проект": 1078,
      "скую": 1079,
      "эпиле": 1080,
      "дальнейшем": 1081,
      "роскосмо": 1082,
      "электро": 1083,
      "количе": 1084,
      "популя": 1085,
      "ps": 1086,
      "sp": 1087,
      "ада": 1088,
      "гля": 1089,
      "здо": 1090,
      "ио": 1091,
      "ию": 1092,
      "нь": 1093,
      "носи": 1094,
      "национа": 1095,
      "рои": 1096,
      "пора": 1097,
      "году": 1098,
      "каж": 1099,
      "кая": 1100,
      "ломоно": 1101,
      "дея": 1102,
      "пас": 1103,
      "мень": 1104,
      "сторо": 1105,
      "гена": 1106,
      "активность": 1107,
      "глав": 1108,
      "времени": 1109,
      "чень": 1110,
      "вещества": 1111,
      "соединений": 1112,
      "ющей": 1113,
      "космодро": 1114,
      "выяснили": 1115,
      "обеспечи": 1116,
      "st": 1117,
      "ое": 1118,
      "очень": 1119,
      "пли": 1120,
      "срав": 1121,
      "чу": 1122,
      "чный": 1123,
      "поте": 1124,
      "посколь": 1125,
      "темати": 1126,
      "тами": 1127,
      "обита": 1128,
      "сиби": 1129,
      "лась": 1130,
      "нем": 1131,
      "сох": 1132,
      "принима": 1133,
      "новый": 1134,
      "верх": 1135,
      "бай": 1136,
      "группы": 1137,
      "веществ": 1138,
      "соединения": 1139,
      "сколько": 1140,
      "обнаружили": 1141,
      "москов": 1142,
      "потенциаль": 1143,
      "молодых": 1144,
      "поскольку": 1145,
      "вти": 1146,
      "или": 1147,
      "спи": 1148,
      "ья": 1149,
      "эта": 1150,
      "най": 1151,
      "теги": 1152,
      "лекар": 1153,
      "мон": 1154,
      "защи": 1155,
      "мест": 1156,
      "деми": 1157,
      "тыся": 1158,
      "отли": 1159,
      "ственно": 1160,
      "ленных": 1161,
      "образователь": 1162,
      "стерои": 1163,
      "более": 1164,
      "плот": 1165,
      "объек": 1166,
      "белков": 1167,
      "регуля": 1168,
      "человека": 1169,
      "особенно": 1170,
      "территории": 1171,
      "специали": 1172,
      "наиболее": 1173,
      "здоров": 1174,
      "io": 1175,
      "sc": 1176,
      "ter": 1177,
      "чного": 1178,
      "побе": 1179,
      "ред": 1180,
      "реали": 1181,
      "кал": 1182,
      "казыва": 1183,
      "сол": 1184,
      "дели": 1185,
      "дости": 1186,
      "доктор": 1187,
      "меня": 1188,
      "изда": 1189,
      "изуч": 1190,
      "фото": 1191,
      "перспе": 1192,
      "пове": 1193,
      "клетка": 1194,
      "способность": 1195,
      "ступ": 1196,
      "полученные": 1197,
      "исследовании": 1198,
      "числе": 1199,
      "атмос": 1200,
      "астерои": 1201,
      "гности": 1202,
      "ктов": 1203,
      "рных": 1204,
      "счита": 1205,
      "тке": 1206,
      "устой": 1207,
      "щем": 1208,
      "нор": 1209,
      "кора": 1210,
      "поче": 1211,
      "город": 1212,
      "кам": 1213,
      "чев": 1214,
      "скор": 1215,
      "искус": 1216,
      "ляют": 1217,
      "тельной": 1218,
      "жить": 1219,
      "щие": 1220,
      "современ": 1221,
      "слож": 1222,
      "ствует": 1223,
      "среди": 1224,
      "биологических": 1225,
      "архе": 1226,
      "показали": 1227,
      "будут": 1228,
      "взгля": 1229,
      "мозга": 1230,
      "com": 1231,
      "метил": 1232,
      "поверхности": 1233,
      "ресур": 1234,
      "ломоносова": 1235,
      "устойчи": 1236,
      "ана": 1237,
      "вто": 1238,
      "включа": 1239,
      "ии": 1240,
      "ить": 1241,
      "успе": 1242,
      "увели": 1243,
      "чь": 1244,
      "кое": 1245,
      "насе": 1246,
      "наход": 1247,
      "нита": 1248,
      "полага": 1249,
      "тиа": 1250,
      "тиво": 1251,
      "мой": 1252,
      "противо": 1253,
      "математи": 1254,
      "дет": 1255,
      "ляет": 1256,
      "прези": 1257,
      "пита": 1258,
      "научной": 1259,
      "людей": 1260,
      "широ": 1261,
      "образовани": 1262,
      "студен": 1263,
      "сред": 1264,
      "молекуля": 1265,
      "восстанов": 1266,
      "определи": 1267,
      "заболевания": 1268,
      "изменения": 1269,
      "звезды": 1270,
      "ракеты": 1271,
      "водит": 1272,
      "алексей": 1273,
      "президен": 1274,
      "бра": 1275,
      "вза": 1276,
      "вла": 1277,
      "гни": 1278,
      "кции": 1279,
      "лых": 1280,
      "ологи": 1281,
      "тные": 1282,
      "фра": 1283,
      "эво": 1284,
      "носите": 1285,
      "нием": 1286,
      "пор": 1287,
      "теле": 1288,
      "обы": 1289,
      "дида": 1290,
      "чет": 1291,
      "ческое": 1292,
      "ческую": 1293,
      "продол": 1294,
      "манита": 1295,
      "гидро": 1296,
      "стан": 1297,
      "сан": 1298,
      "емых": 1299,
      "жив": 1300,
      "семе": 1301,
      "ответ": 1302,
      "гуманита": 1303,
      "образования": 1304,
      "имму": 1305,
      "проекты": 1306,
      "развитие": 1307,
      "важно": 1308,
      "анализи": 1309,
      "наблюда": 1310,
      "кандида": 1311,
      "участие": 1312,
      "угле": 1313,
      "победи": 1314,
      "эволю": 1315,
      "ed": 1316,
      "гри": 1317,
      "жение": 1318,
      "ок": 1319,
      "оме": 1320,
      "ссо": 1321,
      "управ": 1322,
      "шения": 1323,
      "щения": 1324,
      "эн": 1325,
      "ями": 1326,
      "ень": 1327,
      "них": 1328,
      "льную": 1329,
      "летия": 1330,
      "кала": 1331,
      "дан": 1332,
      "цией": 1333,
      "неф": 1334,
      "недостаточ": 1335,
      "состав": 1336,
      "гибри": 1337,
      "веро": 1338,
      "тельных": 1339,
      "мых": 1340,
      "фина": 1341,
      "распростран": 1342,
      "бур": 1343,
      "активности": 1344,
      "феры": 1345,
      "медицина": 1346,
      "конкурс": 1347,
      "возможно": 1348,
      "использовали": 1349,
      "использовать": 1350,
      "позволит": 1351,
      "исследовательского": 1352,
      "ogy": 1353,
      "взаи": 1354,
      "um": 1355,
      "ап": 1356,
      "бло": 1357,
      "гло": 1358,
      "кта": 1359,
      "сс": 1360,
      "ье": 1361,
      "нача": 1362,
      "рой": 1363,
      "поч": 1364,
      "тей": 1365,
      "льный": 1366,
      "мио": 1367,
      "милли": 1368,
      "обра": 1369,
      "ваются": 1370,
      "нет": 1371,
      "проис": 1372,
      "гидра": 1373,
      "испы": 1374,
      "лять": 1375,
      "достав": 1376,
      "прин": 1377,
      "тельство": 1378,
      "сут": 1379,
      "север": 1380,
      "отде": 1381,
      "часто": 1382,
      "подтвер": 1383,
      "констру": 1384,
      "нуж": 1385,
      "анга": 1386,
      "безо": 1387,
      "ший": 1388,
      "трав": 1389,
      "тради": 1390,
      "харак": 1391,
      "шего": 1392,
      "российских": 1393,
      "связ": 1394,
      "прово": 1395,
      "тяже": 1396,
      "свои": 1397,
      "свойства": 1398,
      "ждения": 1399,
      "биология": 1400,
      "человек": 1401,
      "диагности": 1402,
      "клад": 1403,
      "предложен": 1404,
      "десяти": 1405,
      "кандидат": 1406,
      "гибрид": 1407,
      "вероят": 1408,
      "аппара": 1409,
      "безопас": 1410,
      "ae": 1411,
      "акти": 1412,
      "вной": 1413,
      "жет": 1414,
      "кре": 1415,
      "лены": 1416,
      "нения": 1417,
      "он": 1418,
      "ровани": 1419,
      "това": 1420,
      "щен": 1421,
      "ному": 1422,
      "настоя": 1423,
      "подав": 1424,
      "той": 1425,
      "кило": 1426,
      "мине": 1427,
      "руб": 1428,
      "ческая": 1429,
      "зажив": 1430,
      "скоро": 1431,
      "профе": 1432,
      "разру": 1433,
      "ссии": 1434,
      "торных": 1435,
      "получа": 1436,
      "создания": 1437,
      "другие": 1438,
      "источ": 1439,
      "метал": 1440,
      "заболева": 1441,
      "звезд": 1442,
      "эксперимента": 1443,
      "радио": 1444,
      "ствовать": 1445,
      "крови": 1446,
      "программы": 1447,
      "энергии": 1448,
      "полез": 1449,
      "синтези": 1450,
      "астрономия": 1451,
      "потенциально": 1452,
      "гуманитарные": 1453,
      "ys": 1454,
      "ака": 1455,
      "вну": 1456,
      "мгу": 1457,
      "пря": 1458,
      "ям": 1459,
      "яс": 1460,
      "рах": 1461,
      "нообраз": 1462,
      "нано": 1463,
      "рогов": 1464,
      "нию": 1465,
      "гори": 1466,
      "льная": 1467,
      "ката": 1468,
      "мости": 1469,
      "вого": 1470,
      "вопро": 1471,
      "вость": 1472,
      "руют": 1473,
      "четы": 1474,
      "приня": 1475,
      "приводит": 1476,
      "изучи": 1477,
      "сети": 1478,
      "отве": 1479,
      "подоб": 1480,
      "компа": 1481,
      "шая": 1482,
      "помога": 1483,
      "степ": 1484,
      "гети": 1485,
      "высоко": 1486,
      "группа": 1487,
      "энергети": 1488,
      "участники": 1489,
      "разработали": 1490,
      "температуры": 1491,
      "различных": 1492,
      "лаборатории": 1493,
      "психо": 1494,
      "спутника": 1495,
      "направления": 1496,
      "федерации": 1497,
      "жизни": 1498,
      "конгресса": 1499,
      "восточный": 1500,
      "эпилепси": 1501,
      "национального": 1502,
      "принци": 1503,
      "километров": 1504,
      "li": 1505,
      "ub": 1506,
      "гно": 1507,
      "гна": 1508,
      "дми": 1509,
      "кни": 1510,
      "кри": 1511,
      "кван": 1512,
      "оте": 1513,
      "сла": 1514,
      "цов": 1515,
      "стер": 1516,
      "раза": 1517,
      "кочев": 1518,
      "тон": 1519,
      "токси": 1520,
      "обмен": 1521,
      "систе": 1522,
      "лан": 1523,
      "несколько": 1524,
      "скому": 1525,
      "согла": 1526,
      "разнообраз": 1527,
      "стал": 1528,
      "стать": 1529,
      "примен": 1530,
      "публи": 1531,
      "щий": 1532,
      "ческими": 1533,
      "подготов": 1534,
      "работу": 1535,
      "первые": 1536,
      "густа": 1537,
      "нейтро": 1538,
      "результате": 1539,
      "молекулы": 1540,
      "возможность": 1541,
      "анализ": 1542,
      "спутников": 1543,
      "структуры": 1544,
      "эпители": 1545,
      "препаратов": 1546,
      "вселен": 1547,
      "понять": 1548,
      "директор": 1549,
      "калмы": 1550,
      "носителя": 1551,
      "активи": 1552,
      "академи": 1553,
      "рогови": 1554,
      "am": 1555,
      "встре": 1556,
      "гены": 1557,
      "гей": 1558,
      "жении": 1559,
      "зя": 1560,
      "зма": 1561,
      "нного": 1562,
      "осты": 1563,
      "сверх": 1564,
      "ять": 1565,
      "стях": 1566,
      "нам": 1567,
      "нац": 1568,
      "нашей": 1569,
      "поро": 1570,
      "там": 1571,
      "такое": 1572,
      "ками": 1573,
      "вается": 1574,
      "ческом": 1575,
      "замести": 1576,
      "сигна": 1577,
      "проанализи": 1578,
      "стиму": 1579,
      "размно": 1580,
      "ново": 1581,
      "тельности": 1582,
      "сегод": 1583,
      "ческим": 1584,
      "подхо": 1585,
      "августа": 1586,
      "предполага": 1587,
      "баты": 1588,
      "одной": 1589,
      "орби": 1590,
      "полни": 1591,
      "ятся": 1592,
      "серде": 1593,
      "физики": 1594,
      "фунда": 1595,
      "ключе": 1596,
      "организмов": 1597,
      "открытия": 1598,
      "микроб": 1599,
      "молоде": 1600,
      "кислорода": 1601,
      "которой": 1602,
      "которого": 1603,
      "космических": 1604,
      "телями": 1605,
      "многи": 1606,
      "уровень": 1607,
      "культур": 1608,
      "бактерий": 1609,
      "является": 1610,
      "транс": 1611,
      "роскосмос": 1612,
      "сохран": 1613,
      "клетках": 1614,
      "археологи": 1615,
      "успеш": 1616,
      "тиамина": 1617,
      "десятилетия": 1618,
      "сегодня": 1619,
      "bac": 1620,
      "ia": 1621,
      "no": 1622,
      "ts": 1623,
      "ur": 1624,
      "а5": 1625,
      "ами": 1626,
      "лко": 1627,
      "нная": 1628,
      "пления": 1629,
      "рф": 1630,
      "сро": 1631,
      "сфе": 1632,
      "счет": 1633,
      "тно": 1634,
      "хро": 1635,
      "шению": 1636,
      "рабаты": 1637,
      "наз": 1638,
      "нами": 1639,
      "нагру": 1640,
      "посвя": 1641,
      "понен": 1642,
      "тек": 1643,
      "таким": 1644,
      "мини": 1645,
      "мито": 1646,
      "воды": 1647,
      "циа": 1648,
      "макси": 1649,
      "стива": 1650,
      "стаби": 1651,
      "доро": 1652,
      "гами": 1653,
      "природ": 1654,
      "хозя": 1655,
      "стью": 1656,
      "отра": 1657,
      "информа": 1658,
      "фестива": 1659,
      "собы": 1660,
      "одно": 1661,
      "совмест": 1662,
      "спеди": 1663,
      "няет": 1664,
      "компонен": 1665,
      "форму": 1666,
      "экспеди": 1667,
      "свой": 1668,
      "серд": 1669,
      "медицины": 1670,
      "долж": 1671,
      "долго": 1672,
      "белки": 1673,
      "молекул": 1674,
      "методов": 1675,
      "быстро": 1676,
      "процессы": 1677,
      "органических": 1678,
      "клини": 1679,
      "истории": 1680,
      "региона": 1681,
      "глуби": 1682,
      "удалось": 1683,
      "легких": 1684,
      "форум": 1685,
      "мероприятия": 1686,
      "количество": 1687,
      "московского": 1688,
      "миллио": 1689,
      "катализа": 1690,
      "квантов": 1691,
      "фундамента": 1692,
      "le": 1693,
      "ph": 1694,
      "аген": 1695,
      "вов": 1696,
      "лению": 1697,
      "нный": 1698,
      "опти": 1699,
      "установ": 1700,
      "раков": 1701,
      "кост": 1702,
      "коди": 1703,
      "поис": 1704,
      "льном": 1705,
      "леч": 1706,
      "тию": 1707,
      "ваемо": 1708,
      "воло": 1709,
      "зап": 1710,
      "мед": 1711,
      "ман": 1712,
      "боли": 1713,
      "выпол": 1714,
      "газов": 1715,
      "пам": 1716,
      "мент": 1717,
      "суль": 1718,
      "хонд": 1719,
      "част": 1720,
      "подход": 1721,
      "научные": 1722,
      "пери": 1723,
      "расши": 1724,
      "бар": 1725,
      "мерз": 1726,
      "цев": 1727,
      "грамма": 1728,
      "альных": 1729,
      "основа": 1730,
      "тканей": 1731,
      "поддержке": 1732,
      "разработки": 1733,
      "модей": 1734,
      "республи": 1735,
      "треб": 1736,
      "стратеги": 1737,
      "среды": 1738,
      "трий": 1739,
      "физико": 1740,
      "белка": 1741,
      "говори": 1742,
      "лаборатори": 1743,
      "est": 1744,
      "решения": 1745,
      "сахалин": 1746,
      "федерального": 1747,
      "древ": 1748,
      "коллегами": 1749,
      "корре": 1750,
      "качестве": 1751,
      "взаимодей": 1752,
      "ангара": 1753,
      "минера": 1754,
      "дмитрий": 1755,
      "заместитель": 1756,
      "митохонд": 1757,
      "митохондри": 1758,
      "ien": 1759,
      "nal": 1760,
      "ut": 1761,
      "ак": 1762,
      "акту": 1763,
      "впервые": 1764,
      "кер": 1765,
      "лка": 1766,
      "оль": 1767,
      "оки": 1768,
      "оказыва": 1769,
      "сет": 1770,
      "устро": 1771,
      "узна": 1772,
      "умень": 1773,
      "флек": 1774,
      "щую": 1775,
      "юж": 1776,
      "расти": 1777,
      "раке": 1778,
      "нав": 1779,
      "наслед": 1780,
      "называ": 1781,
      "ним": 1782,
      "ниц": 1783,
      "пози": 1784,
      "рев": 1785,
      "рефлек": 1786,
      "тести": 1787,
      "лемен": 1788,
      "кий": 1789,
      "вое": 1790,
      "данных": 1791,
      "затем": 1792,
      "сих": 1793,
      "мера": 1794,
      "прой": 1795,
      "прогно": 1796,
      "сообще": 1797,
      "вида": 1798,
      "выс": 1799,
      "века": 1800,
      "новой": 1801,
      "излуч": 1802,
      "стоит": 1803,
      "седа": 1804,
      "мыше": 1805,
      "инди": 1806,
      "инжен": 1807,
      "пище": 1808,
      "научная": 1809,
      "работе": 1810,
      "первы": 1811,
      "ряд": 1812,
      "участву": 1813,
      "сове": 1814,
      "образом": 1815,
      "возника": 1816,
      "форм": 1817,
      "формы": 1818,
      "поможет": 1819,
      "стоян": 1820,
      "разработке": 1821,
      "снизи": 1822,
      "трех": 1823,
      "биологии": 1824,
      "примерно": 1825,
      "ходит": 1826,
      "внезап": 1827,
      "организа": 1828,
      "состояния": 1829,
      "интерес": 1830,
      "частицы": 1831,
      "материалов": 1832,
      "оценили": 1833,
      "старший": 1834,
      "самым": 1835,
      "самых": 1836,
      "механизмы": 1837,
      "фибробла": 1838,
      "растений": 1839,
      "медицинского": 1840,
      "адап": 1841,
      "сибир": 1842,
      "атмосферы": 1843,
      "корал": 1844,
      "фраг": 1845,
      "бург": 1846,
      "профессо": 1847,
      "заболеваний": 1848,
      "четыре": 1849,
      "калмыки": 1850,
      "роговицы": 1851,
      "bacter": 1852,
      "инженер": 1853,
      "ep": 1854,
      "глю": 1855,
      "дней": 1856,
      "иму": 1857,
      "ится": 1858,
      "кс": 1859,
      "крас": 1860,
      "лении": 1861,
      "мени": 1862,
      "ох": 1863,
      "оцен": 1864,
      "опы": 1865,
      "пет": 1866,
      "сфер": 1867,
      "тной": 1868,
      "ьер": 1869,
      "элемен": 1870,
      "стых": 1871,
      "кость": 1872,
      "ниже": 1873,
      "пода": 1874,
      "постро": 1875,
      "покры": 1876,
      "регенера": 1877,
      "голо": 1878,
      "голов": 1879,
      "города": 1880,
      "льда": 1881,
      "льным": 1882,
      "такая": 1883,
      "тин": 1884,
      "тить": 1885,
      "обуч": 1886,
      "мор": 1887,
      "дах": 1888,
      "чей": 1889,
      "заведу": 1890,
      "сили": 1891,
      "мало": 1892,
      "соста": 1893,
      "сосу": 1894,
      "сокра": 1895,
      "соответ": 1896,
      "дета": 1897,
      "демон": 1898,
      "виды": 1899,
      "доступ": 1900,
      "преиму": 1901,
      "сами": 1902,
      "санк": 1903,
      "петер": 1904,
      "певти": 1905,
      "мене": 1906,
      "призна": 1907,
      "тельный": 1908,
      "измер": 1909,
      "бира": 1910,
      "чие": 1911,
      "щее": 1912,
      "предполо": 1913,
      "ственной": 1914,
      "цент": 1915,
      "специаль": 1916,
      "образу": 1917,
      "щая": 1918,
      "проводи": 1919,
      "высоких": 1920,
      "высокой": 1921,
      "ствуют": 1922,
      "вую": 1923,
      "терапевти": 1924,
      "химии": 1925,
      "систему": 1926,
      "емого": 1927,
      "участников": 1928,
      "лабораторных": 1929,
      "структуру": 1930,
      "нейронов": 1931,
      "наблюдения": 1932,
      "существ": 1933,
      "уровня": 1934,
      "случае": 1935,
      "практически": 1936,
      "комплекс": 1937,
      "глубо": 1938,
      "водород": 1939,
      "повреждения": 1940,
      "действие": 1941,
      "патоген": 1942,
      "издательство": 1943,
      "взгляда": 1944,
      "включая": 1945,
      "образованию": 1946,
      "молекуляр": 1947,
      "заживления": 1948,
      "частности": 1949,
      "глюко": 1950,
      "преимуще": 1951,
      "санкт": 1952,
      "la": 1953,
      "logy": 1954,
      "te": 1955,
      "tr": 1956,
      "вме": 1957,
      "гры": 1958,
      "дву": 1959,
      "ема": 1960,
      "ллек": 1961,
      "нга": 1962,
      "нению": 1963,
      "окру": 1964,
      "рения": 1965,
      "тков": 1966,
      "уго": 1967,
      "фар": 1968,
      "шение": 1969,
      "ым": 1970,
      "реаль": 1971,
      "течение": 1972,
      "льное": 1973,
      "кина": 1974,
      "кана": 1975,
      "капли": 1976,
      "типа": 1977,
      "лока": 1978,
      "дио": 1979,
      "диметил": 1980,
      "дале": 1981,
      "затра": 1982,
      "сим": 1983,
      "сить": 1984,
      "сом": 1985,
      "сою": 1986,
      "сооб": 1987,
      "разные": 1988,
      "выде": 1989,
      "выше": 1990,
      "вызыва": 1991,
      "тельные": 1992,
      "секу": 1993,
      "сезо": 1994,
      "фокси": 1995,
      "музе": 1996,
      "отно": 1997,
      "интер": 1998,
      "инстру": 1999,
      "щего": 2000,
      "чаются": 2001,
      "бере": 2002,
      "дыха": 2003,
      "фици": 2004,
      "ющими": 2005,
      "шим": 2006,
      "ственный": 2007,
      "одного": 2008,
      "совер": 2009,
      "комму": 2010,
      "спон": 2011,
      "исследовали": 2012,
      "терби": 2013,
      "циях": 2014,
      "щает": 2015,
      "университет": 2016,
      "геля": 2017,
      "треть": 2018,
      "страны": 2019,
      "никами": 2020,
      "химио": 2021,
      "энерго": 2022,
      "тивных": 2023,
      "вещество": 2024,
      "трен": 2025,
      "организмы": 2026,
      "воспа": 2027,
      "возможности": 2028,
      "метаболи": 2029,
      "анализа": 2030,
      "будущем": 2031,
      "позволяют": 2032,
      "обнаружен": 2033,
      "фак": 2034,
      "гресс": 2035,
      "предложили": 2036,
      "интеллек": 2037,
      "материала": 2038,
      "канта": 2039,
      "регулиру": 2040,
      "свечения": 2041,
      "сахари": 2042,
      "and": 2043,
      "функции": 2044,
      "функциона": 2045,
      "круп": 2046,
      "форума": 2047,
      "иттерби": 2048,
      "сравни": 2049,
      "перспекти": 2050,
      "почек": 2051,
      "насеко": 2052,
      "влади": 2053,
      "семей": 2054,
      "отвеча": 2055,
      "сульфокси": 2056,
      "период": 2057,
      "говорит": 2058,
      "совета": 2059,
      "диметилсульфокси": 2060,
      "ct": 2061,
      "vo": 2062,
      "биз": 2063,
      "вных": 2064,
      "ини": 2065,
      "ила": 2066,
      "пле": 2067,
      "плен": 2068,
      "сков": 2069,
      "ттер": 2070,
      "ур": 2071,
      "ули": 2072,
      "улуч": 2073,
      "ускор": 2074,
      "юри": 2075,
      "рами": 2076,
      "раско": 2077,
      "наде": 2078,
      "начи": 2079,
      "накапли": 2080,
      "либо": 2081,
      "пони": 2082,
      "реб": 2083,
      "кафе": 2084,
      "мире": 2085,
      "тими": 2086,
      "тиру": 2087,
      "лом": 2088,
      "диску": 2089,
      "ваться": 2090,
      "воду": 2091,
      "дает": 2092,
      "руются": 2093,
      "зад": 2094,
      "запу": 2095,
      "программа": 2096,
      "магни": 2097,
      "сопрово": 2098,
      "вита": 2099,
      "выз": 2100,
      "выпуск": 2101,
      "газа": 2102,
      "паттер": 2103,
      "сай": 2104,
      "санд": 2105,
      "приме": 2106,
      "тельства": 2107,
      "холо": 2108,
      "ходе": 2109,
      "отсле": 2110,
      "ссио": 2111,
      "персо": 2112,
      "первого": 2113,
      "фикси": 2114,
      "располо": 2115,
      "науке": 2116,
      "ленные": 2117,
      "полностью": 2118,
      "цеп": 2119,
      "образование": 2120,
      "комби": 2121,
      "довых": 2122,
      "ционных": 2123,
      "активно": 2124,
      "грантов": 2125,
      "разработка": 2126,
      "провер": 2127,
      "способны": 2128,
      "страто": 2129,
      "глаз": 2130,
      "вулка": 2131,
      "использовани": 2132,
      "ствии": 2133,
      "другими": 2134,
      "емой": 2135,
      "соединение": 2136,
      "организма": 2137,
      "котором": 2138,
      "клас": 2139,
      "организации": 2140,
      "выяви": 2141,
      "мозге": 2142,
      "учиты": 2143,
      "земли": 2144,
      "существу": 2145,
      "александ": 2146,
      "решений": 2147,
      "антимикроб": 2148,
      "реак": 2149,
      "большин": 2150,
      "буддийских": 2151,
      "борь": 2152,
      "имеют": 2153,
      "контролиру": 2154,
      "гаммару": 2155,
      "описа": 2156,
      "рачки": 2157,
      "спектра": 2158,
      "известно": 2159,
      "всем": 2160,
      "дирек": 2161,
      "ферментов": 2162,
      "белок": 2163,
      "болезни": 2164,
      "вариантов": 2165,
      "адапти": 2166,
      "июня": 2167,
      "каждо": 2168,
      "потепления": 2169,
      "тысяч": 2170,
      "специалисты": 2171,
      "scien": 2172,
      "солне": 2173,
      "меняется": 2174,
      "перспектив": 2175,
      "увеличи": 2176,
      "омега": 2177,
      "управления": 2178,
      "нефте": 2179,
      "испыта": 2180,
      "разруша": 2181,
      "вселенная": 2182,
      "молодежи": 2183,
      "кодиру": 2184,
      "окисли": 2185,
      "ракета": 2186,
      "заведующий": 2187,
      "демонстри": 2188,
      "грызу": 2189,
      "коммуника": 2190,
      "бизне": 2191,
      "александр": 2192,
      "et": 2193,
      "eu": 2194,
      "is": 2195,
      "iv": 2196,
      "jo": 2197,
      "med": 2198,
      "of": 2199,
      "апре": 2200,
      "аспи": 2201,
      "вле": 2202,
      "вве": 2203,
      "гер": 2204,
      "еже": 2205,
      "жден": 2206,
      "здра": 2207,
      "оли": 2208,
      "оре": 2209,
      "оче": 2210,
      "сме": 2211,
      "тво": 2212,
      "тного": 2213,
      "укра": 2214,
      "ху": 2215,
      "чт": 2216,
      "яр": 2217,
      "стрес": 2218,
      "ено": 2219,
      "енного": 2220,
      "рака": 2221,
      "раство": 2222,
      "нок": 2223,
      "коро": 2224,
      "копла": 2225,
      "ростов": 2226,
      "теори": 2227,
      "госкор": 2228,
      "льсан": 2229,
      "кав": 2230,
      "камер": 2231,
      "мира": 2232,
      "тии": 2233,
      "тина": 2234,
      "циф": 2235,
      "занима": 2236,
      "нев": 2237,
      "месторо": 2238,
      "масси": 2239,
      "гиб": 2240,
      "бокопла": 2241,
      "вид": 2242,
      "виду": 2243,
      "выяв": 2244,
      "стали": 2245,
      "вести": 2246,
      "газо": 2247,
      "тый": 2248,
      "емые": 2249,
      "тельность": 2250,
      "стол": 2251,
      "хотя": 2252,
      "ковод": 2253,
      "мые": 2254,
      "отметил": 2255,
      "отсут": 2256,
      "иннова": 2257,
      "чаще": 2258,
      "поддержи": 2259,
      "конву": 2260,
      "пило": 2261,
      "работ": 2262,
      "рованных": 2263,
      "шить": 2264,
      "строи": 2265,
      "шее": 2266,
      "ством": 2267,
      "крыс": 2268,
      "активные": 2269,
      "своей": 2270,
      "требу": 2271,
      "создали": 2272,
      "соедини": 2273,
      "ствие": 2274,
      "эффективность": 2275,
      "евский": 2276,
      "объеди": 2277,
      "организме": 2278,
      "летучи": 2279,
      "метод": 2280,
      "методы": 2281,
      "кислоты": 2282,
      "экологи": 2283,
      "процесса": 2284,
      "терапия": 2285,
      "условия": 2286,
      "различные": 2287,
      "астроци": 2288,
      "компью": 2289,
      "провели": 2290,
      "проведения": 2291,
      "остается": 2292,
      "оценить": 2293,
      "клима": 2294,
      "связано": 2295,
      "антиконву": 2296,
      "крово": 2297,
      "добав": 2298,
      "проблема": 2299,
      "опухолей": 2300,
      "белого": 2301,
      "технических": 2302,
      "технического": 2303,
      "экономики": 2304,
      "роскосмоса": 2305,
      "июля": 2306,
      "носитель": 2307,
      "кажды": 2308,
      "космодрома": 2309,
      "астероидов": 2310,
      "норма": 2311,
      "ресурсов": 2312,
      "устойчивость": 2313,
      "широко": 2314,
      "определить": 2315,
      "телеско": 2316,
      "иммуно": 2317,
      "финан": 2318,
      "миокар": 2319,
      "характер": 2320,
      "связей": 2321,
      "разнообрази": 2322,
      "проанализировали": 2323,
      "urnal": 2324,
      "фестиваля": 2325,
      "миллионов": 2326,
      "актуаль": 2327,
      "прогнози": 2328,
      "петербург": 2329,
      "совершен": 2330,
      "отслежи": 2331,
      "journal": 2332,
      "апреля": 2333,
      "аспиран": 2334,
      "госкорпора": 2335,
      "антиконвульсан": 2336,
      "bio": 2337,
      "ca": 2338,
      "ccom": 2339,
      "ium": 2340,
      "re": 2341,
      "xa": 2342,
      "yxa": 2343,
      "бса": 2344,
      "вшие": 2345,
      "джи": 2346,
      "ид": 2347,
      "ито": 2348,
      "кса": 2349,
      "спла": 2350,
      "сдела": 2351,
      "уско": 2352,
      "щу": 2353,
      "ыми": 2354,
      "юфе": 2355,
      "ющую": 2356,
      "стые": 2357,
      "рани": 2358,
      "ноя": 2359,
      "ностей": 2360,
      "когни": 2361,
      "наши": 2362,
      "находи": 2363,
      "назад": 2364,
      "роль": 2365,
      "ниче": 2366,
      "позна": 2367,
      "пород": 2368,
      "понима": 2369,
      "посети": 2370,
      "потреб": 2371,
      "рез": 2372,
      "гор": 2373,
      "топли": 2374,
      "тар": 2375,
      "какие": 2376,
      "мисси": 2377,
      "мощ": 2378,
      "мость": 2379,
      "моду": 2380,
      "вающие": 2381,
      "вол": 2382,
      "зал": 2383,
      "запуска": 2384,
      "него": 2385,
      "против": 2386,
      "маски": 2387,
      "сосе": 2388,
      "ским": 2389,
      "вел": 2390,
      "ляется": 2391,
      "преми": 2392,
      "предо": 2393,
      "паевский": 2394,
      "сара": 2395,
      "пепти": 2396,
      "кубса": 2397,
      "тельную": 2398,
      "тельное": 2399,
      "изуча": 2400,
      "живу": 2401,
      "хожи": 2402,
      "читы": 2403,
      "подчер": 2404,
      "андре": 2405,
      "предпринима": 2406,
      "расстро": 2407,
      "близ": 2408,
      "ственные": 2409,
      "ленного": 2410,
      "центр": 2411,
      "грамо": 2412,
      "возбу": 2413,
      "уникаль": 2414,
      "проектов": 2415,
      "слой": 2416,
      "свет": 2417,
      "зом": 2418,
      "точно": 2419,
      "шать": 2420,
      "помогут": 2421,
      "ционные": 2422,
      "ционной": 2423,
      "циями": 2424,
      "жающей": 2425,
      "связи": 2426,
      "связыва": 2427,
      "гель": 2428,
      "эффек": 2429,
      "нервной": 2430,
      "создание": 2431,
      "использования": 2432,
      "мышцы": 2433,
      "медицине": 2434,
      "эффективно": 2435,
      "трюфе": 2436,
      "сенсиби": 2437,
      "метода": 2438,
      "слова": 2439,
      "кислот": 2440,
      "водя": 2441,
      "которое": 2442,
      "процессе": 2443,
      "этим": 2444,
      "космического": 2445,
      "космической": 2446,
      "психи": 2447,
      "взро": 2448,
      "мозг": 2449,
      "состояние": 2450,
      "влияют": 2451,
      "coccom": 2452,
      "препарата": 2453,
      "препараты": 2454,
      "частиц": 2455,
      "эксперименты": 2456,
      "масшта": 2457,
      "программу": 2458,
      "бактерии": 2459,
      "комплекса": 2460,
      "значительно": 2461,
      "имеет": 2462,
      "повреждений": 2463,
      "механизм": 2464,
      "представители": 2465,
      "фиброза": 2466,
      "служ": 2467,
      "языка": 2468,
      "конгресс": 2469,
      "зависимости": 2470,
      "алгори": 2471,
      "медицинских": 2472,
      "школь": 2473,
      "продуктов": 2474,
      "концентрации": 2475,
      "варианты": 2476,
      "популяри": 2477,
      "деятельности": 2478,
      "sto": 2479,
      "чув": 2480,
      "байкала": 2481,
      "найден": 2482,
      "солн": 2483,
      "фотосенсиби": 2484,
      "студентов": 2485,
      "определили": 2486,
      "обычно": 2487,
      "почки": 2488,
      "диагностики": 2489,
      "внутри": 2490,
      "система": 2491,
      "хрони": 2492,
      "нагруз": 2493,
      "совместно": 2494,
      "экспедиции": 2495,
      "ольга": 2496,
      "первый": 2497,
      "кораллов": 2498,
      "глюкозы": 2499,
      "иттербия": 2500,
      "инициа": 2501,
      "кафед": 2502,
      "стратосфер": 2503,
      "coccomyxa": 2504,
      "алгорит": 2505,
      "di": 2506,
      "ma": 2507,
      "res": 2508,
      "ul": 2509,
      "атом": 2510,
      "вших": 2511,
      "дь": 2512,
      "ева": 2513,
      "жению": 2514,
      "зм": 2515,
      "игли": 2516,
      "идея": 2517,
      "лые": 2518,
      "мс": 2519,
      "мф": 2520,
      "нным": 2521,
      "ору": 2522,
      "очи": 2523,
      "омма": 2524,
      "пление": 2525,
      "сма": 2526,
      "тли": 2527,
      "цу": 2528,
      "цгей": 2529,
      "чным": 2530,
      "шо": 2531,
      "шений": 2532,
      "щенных": 2533,
      "раста": 2534,
      "нои": 2535,
      "коле": 2536,
      "коне": 2537,
      "коор": 2538,
      "кологии": 2539,
      "намер": 2540,
      "наша": 2541,
      "настав": 2542,
      "ница": 2543,
      "нирован": 2544,
      "поя": 2545,
      "побо": 2546,
      "погло": 2547,
      "поряд": 2548,
      "того": 2549,
      "кин": 2550,
      "каз": 2551,
      "миров": 2552,
      "микрово": 2553,
      "лож": 2554,
      "овательно": 2555,
      "дин": 2556,
      "рубе": 2557,
      "циан": 2558,
      "задерж": 2559,
      "некоторых": 2560,
      "несен": 2561,
      "мега": 2562,
      "ману": 2563,
      "дерев": 2564,
      "гиби": 2565,
      "бога": 2566,
      "сят": 2567,
      "выжи": 2568,
      "высв": 2569,
      "выбра": 2570,
      "стало": 2571,
      "ляции": 2572,
      "доказа": 2573,
      "пресс": 2574,
      "пазо": 2575,
      "павел": 2576,
      "емь": 2577,
      "сель": 2578,
      "сечен": 2579,
      "ходить": 2580,
      "ковых": 2581,
      "фос": 2582,
      "мую": 2583,
      "инфе": 2584,
      "интен": 2585,
      "ингиби": 2586,
      "часть": 2587,
      "собой": 2588,
      "фило": 2589,
      "ленности": 2590,
      "биотехнологии": 2591,
      "грани": 2592,
      "альные": 2593,
      "альцгей": 2594,
      "возду": 2595,
      "осво": 2596,
      "исследовать": 2597,
      "шелко": 2598,
      "значение": 2599,
      "зофи": 2600,
      "шает": 2601,
      "технологического": 2602,
      "активных": 2603,
      "медико": 2604,
      "день": 2605,
      "друг": 2606,
      "жат": 2607,
      "жать": 2608,
      "свое": 2609,
      "женных": 2610,
      "нализи": 2611,
      "лый": 2612,
      "вузов": 2613,
      "дрозофи": 2614,
      "ходят": 2615,
      "группе": 2616,
      "физической": 2617,
      "объяс": 2618,
      "показал": 2619,
      "показало": 2620,
      "синдро": 2621,
      "разработать": 2622,
      "внед": 2623,
      "внеш": 2624,
      "новая": 2625,
      "полимер": 2626,
      "полисахари": 2627,
      "изменение": 2628,
      "влияет": 2629,
      "влияние": 2630,
      "земных": 2631,
      "ведущих": 2632,
      "формирование": 2633,
      "повысить": 2634,
      "свечение": 2635,
      "стартова": 2636,
      "ствовали": 2637,
      "культуры": 2638,
      "ans": 2639,
      "энергию": 2640,
      "chro": 2641,
      "представителей": 2642,
      "рачков": 2643,
      "мероприятий": 2644,
      "гресси": 2645,
      "содержание": 2646,
      "самок": 2647,
      "школы": 2648,
      "штам": 2649,
      "необходимо": 2650,
      "меньше": 2651,
      "сохрани": 2652,
      "московскому": 2653,
      "найти": 2654,
      "отличие": 2655,
      "изучение": 2656,
      "поведение": 2657,
      "математических": 2658,
      "студенты": 2659,
      "восстановления": 2660,
      "восстановление": 2661,
      "станции": 2662,
      "семейства": 2663,
      "победители": 2664,
      "октября": 2665,
      "конструкции": 2666,
      "настоящее": 2667,
      "изучить": 2668,
      "подобные": 2669,
      "отече": 2670,
      "обмена": 2671,
      "подходы": 2672,
      "посвящен": 2673,
      "максима": 2674,
      "природных": 2675,
      "хозяй": 2676,
      "сердца": 2677,
      "агент": 2678,
      "барьер": 2679,
      "республики": 2680,
      "лабораторией": 2681,
      "сообщества": 2682,
      "излучения": 2683,
      "индивиду": 2684,
      "фибробластов": 2685,
      "профессор": 2686,
      "менее": 2687,
      "двух": 2688,
      "союз": 2689,
      "секун": 2690,
      "вулкани": 2691,
      "scienc": 2692,
      "очеред": 2693,
      "цифров": 2694,
      "столк": 2695,
      "летучих": 2696,
      "саратов": 2697,
      "андрей": 2698,
      "оммато": 2699,
      "выживаемо": 2700,
      "интенси": 2701,
      "альцгеймера": 2702,
      "шелкопря": 2703,
      "asc": 2704,
      "cul": 2705,
      "dogy": 2706,
      "el": 2707,
      "mno": 2708,
      "th": 2709,
      "wi": 2710,
      "ато": 2711,
      "бфу": 2712,
      "две": 2713,
      "жных": 2714,
      "зер": 2715,
      "зова": 2716,
      "игра": 2717,
      "йсин": 2718,
      "ню": 2719,
      "ож": 2720,
      "ост": 2721,
      "оле": 2722,
      "опера": 2723,
      "озе": 2724,
      "пят": 2725,
      "рку": 2726,
      "сп": 2727,
      "слю": 2728,
      "смер": 2729,
      "увиде": 2730,
      "что": 2731,
      "чин": 2732,
      "штей": 2733,
      "яли": 2734,
      "стен": 2735,
      "овского": 2736,
      "ната": 2737,
      "насы": 2738,
      "навти": 2739,
      "роб": 2740,
      "родов": 2741,
      "ниу": 2742,
      "лиш": 2743,
      "пото": 2744,
      "рей": 2745,
      "реда": 2746,
      "лья": 2747,
      "тан": 2748,
      "талан": 2749,
      "мир": 2750,
      "лого": 2751,
      "дили": 2752,
      "дают": 2753,
      "зация": 2754,
      "лакти": 2755,
      "мел": 2756,
      "метра": 2757,
      "скол": 2758,
      "прош": 2759,
      "профи": 2760,
      "продемонстри": 2761,
      "мая": 2762,
      "деле": 2763,
      "разу": 2764,
      "разнесен": 2765,
      "выра": 2766,
      "станда": 2767,
      "дополни": 2768,
      "гам": 2769,
      "сах": 2770,
      "кую": 2771,
      "приори": 2772,
      "присут": 2773,
      "слей": 2774,
      "новения": 2775,
      "тельного": 2776,
      "следу": 2777,
      "жит": 2778,
      "исследу": 2779,
      "мый": 2780,
      "музы": 2781,
      "логических": 2782,
      "инду": 2783,
      "чан": 2784,
      "нут": 2785,
      "бес": 2786,
      "гено": 2787,
      "геном": 2788,
      "ученым": 2789,
      "ровал": 2790,
      "зим": 2791,
      "одним": 2792,
      "лена": 2793,
      "теха": 2794,
      "совет": 2795,
      "цель": 2796,
      "коммен": 2797,
      "альной": 2798,
      "возраст": 2799,
      "тром": 2800,
      "тропони": 2801,
      "уника": 2802,
      "уничто": 2803,
      "смот": 2804,
      "российские": 2805,
      "низкой": 2806,
      "тканя": 2807,
      "луны": 2808,
      "гранта": 2809,
      "жает": 2810,
      "времен": 2811,
      "ruct": 2812,
      "ступа": 2813,
      "фермента": 2814,
      "мышц": 2815,
      "серва": 2816,
      "ющихся": 2817,
      "ющиеся": 2818,
      "химических": 2819,
      "групп": 2820,
      "трени": 2821,
      "метано": 2822,
      "космонавти": 2823,
      "процесс": 2824,
      "диапазо": 2825,
      "регистри": 2826,
      "произо": 2827,
      "последстви": 2828,
      "последователь": 2829,
      "парт": 2830,
      "климати": 2831,
      "массы": 2832,
      "радикала": 2833,
      "случаев": 2834,
      "представляют": 2835,
      "синтеза": 2836,
      "буддийский": 2837,
      "особенности": 2838,
      "повреждение": 2839,
      "генетического": 2840,
      "достаточно": 2841,
      "mobacter": 2842,
      "международного": 2843,
      "задач": 2844,
      "маркер": 2845,
      "проблем": 2846,
      "клеточные": 2847,
      "вспы": 2848,
      "алле": 2849,
      "динами": 2850,
      "враща": 2851,
      "графии": 2852,
      "двига": 2853,
      "движения": 2854,
      "транспор": 2855,
      "эпилепти": 2856,
      "pseu": 2857,
      "космодром": 2858,
      "лекарств": 2859,
      "реализации": 2860,
      "делили": 2861,
      "кораб": 2862,
      "городского": 2863,
      "второ": 2864,
      "президента": 2865,
      "гриб": 2866,
      "недостаточно": 2867,
      "начала": 2868,
      "аппаратов": 2869,
      "безопасности": 2870,
      "ровании": 2871,
      "рованию": 2872,
      "помогает": 2873,
      "эпилепсии": 2874,
      "слав": 2875,
      "кочевников": 2876,
      "тонштей": 2877,
      "нацпроект": 2878,
      "нацпроекты": 2879,
      "предполагают": 2880,
      "успешно": 2881,
      "phys": 2882,
      "оценки": 2883,
      "составе": 2884,
      "окружающей": 2885,
      "музея": 2886,
      "насекомых": 2887,
      "vosto": 2888,
      "начина": 2889,
      "тимидин": 2890,
      "витамина": 2891,
      "сайте": 2892,
      "персонализи": 2893,
      "грызунов": 2894,
      "здраво": 2895,
      "твор": 2896,
      "кавказ": 2897,
      "месторожд": 2898,
      "миокарда": 2899,
      "сплайсин": 2900,
      "ускоря": 2901,
      "премии": 2902,
      "грамота": 2903,
      "фотосенсибилиза": 2904,
      "кафедры": 2905,
      "мфти": 2906,
      "сматри": 2907,
      "координа": 2908,
      "микроводоро": 2909,
      "высвобо": 2910,
      "chromobacter": 2911,
      "очередь": 2912,
      "интенсив": 2913,
      "ascus": 2914,
      "dogymno": 2915,
      "стандар": 2916,
      "приорите": 2917,
      "pseudogymno": 2918,
      "vostok": 2919,
      "тимидинкина": 2920,
      "chromobacterium": 2921,
      "pseudogymnoascus": 2922,
      "1а": 2923,
      "ast": 2924,
      "dest": 2925,
      "em": 2926,
      "ear": 2927,
      "ga": 2928,
      "na": 2929,
      "om": 2930,
      "sub": 2931,
      "ti": 2932,
      "tar": 2933,
      "ау": 2934,
      "вш": 2935,
      "гро": 2936,
      "дных": 2937,
      "дня": 2938,
      "дений": 2939,
      "зме": 2940,
      "ил": 2941,
      "ина": 2942,
      "иде": 2943,
      "ирку": 2944,
      "нского": 2945,
      "нений": 2946,
      "оно": 2947,
      "ограни": 2948,
      "пто": 2949,
      "пля": 2950,
      "рги": 2951,
      "смен": 2952,
      "слов": 2953,
      "сформи": 2954,
      "свиде": 2955,
      "уче": 2956,
      "утра": 2957,
      "усили": 2958,
      "хер": 2959,
      "член": 2960,
      "чная": 2961,
      "шка": 2962,
      "шек": 2963,
      "щены": 2964,
      "эли": 2965,
      "яз": 2966,
      "яти": 2967,
      "стки": 2968,
      "енью": 2969,
      "носли": 2970,
      "коми": 2971,
      "копи": 2972,
      "над": 2973,
      "напо": 2974,
      "наше": 2975,
      "натри": 2976,
      "ником": 2977,
      "ницы": 2978,
      "пока": 2979,
      "попа": 2980,
      "тела": 2981,
      "теку": 2982,
      "годы": 2983,
      "горя": 2984,
      "льнее": 2985,
      "тол": 2986,
      "тира": 2987,
      "могли": 2988,
      "дии": 2989,
      "вающих": 2990,
      "вались": 2991,
      "вом": 2992,
      "даго": 2993,
      "запа": 2994,
      "зафикси": 2995,
      "нести": 2996,
      "некоторые": 2997,
      "непар": 2998,
      "просто": 2999,
      "прогресс": 3000,
      "мами": 3001,
      "соне": 3002,
      "содержи": 3003,
      "дегенера": 3004,
      "гибе": 3005,
      "бом": 3006,
      "боло": 3007,
      "исход": 3008,
      "испуска": 3009,
      "разрабаты": 3010,
      "види": 3011,
      "выводу": 3012,
      "выносли": 3013,
      "вед": 3014,
      "лях": 3015,
      "ляли": 3016,
      "лями": 3017,
      "доцент": 3018,
      "педаго": 3019,
      "пригла": 3020,
      "новое": 3021,
      "тельными": 3022,
      "столь": 3023,
      "жирных": 3024,
      "библи": 3025,
      "хоро": 3026,
      "хоста": 3027,
      "тури": 3028,
      "фоли": 3029,
      "фонд": 3030,
      "отме": 3031,
      "отмети": 3032,
      "чия": 3033,
      "конвер": 3034,
      "работка": 3035,
      "работки": 3036,
      "желе": 3037,
      "авто": 3038,
      "которым": 3039,
      "рованы": 3040,
      "рованные": 3041,
      "финали": 3042,
      "ющим": 3043,
      "бал": 3044,
      "ленной": 3045,
      "полу": 3046,
      "ально": 3047,
      "трофи": 3048,
      "ослож": 3049,
      "имману": 3050,
      "экстра": 3051,
      "зок": 3052,
      "переда": 3053,
      "активного": 3054,
      "друга": 3055,
      "жают": 3056,
      "вреди": 3057,
      "гео": 3058,
      "способности": 3059,
      "rus": 3060,
      "создать": 3061,
      "сергей": 3062,
      "областо": 3063,
      "трихоста": 3064,
      "большие": 3065,
      "цах": 3066,
      "явление": 3067,
      "институт": 3068,
      "тивной": 3069,
      "емое": 3070,
      "открывает": 3071,
      "особи": 3072,
      "край": 3073,
      "колла": 3074,
      "важны": 3075,
      "методи": 3076,
      "слых": 3077,
      "глиобласто": 3078,
      "процессов": 3079,
      "будущего": 3080,
      "позволят": 3081,
      "диабе": 3082,
      "телям": 3083,
      "благо": 3084,
      "температуру": 3085,
      "оказался": 3086,
      "заболевание": 3087,
      "спутники": 3088,
      "драх": 3089,
      "сотрудники": 3090,
      "провести": 3091,
      "проведение": 3092,
      "работали": 3093,
      "работать": 3094,
      "работают": 3095,
      "пациента": 3096,
      "нейродегенера": 3097,
      "журнала": 3098,
      "наблюдений": 3099,
      "последние": 3100,
      "последовательно": 3101,
      "ведущий": 3102,
      "материалы": 3103,
      "ждает": 3104,
      "решение": 3105,
      "моноли": 3106,
      "самые": 3107,
      "большое": 3108,
      "добы": 3109,
      "представляет": 3110,
      "позволило": 3111,
      "кальция": 3112,
      "водоро": 3113,
      "жизне": 3114,
      "торами": 3115,
      "русского": 3116,
      "действия": 3117,
      "действием": 3118,
      "ace": 3119,
      "mon": 3120,
      "mole": 3121,
      "легкого": 3122,
      "ционно": 3123,
      "международный": 3124,
      "iii": 3125,
      "вспле": 3126,
      "используются": 3127,
      "спорт": 3128,
      "ферменты": 3129,
      "производства": 3130,
      "продук": 3131,
      "концентрация": 3132,
      "площадки": 3133,
      "площадке": 3134,
      "популяции": 3135,
      "ионов": 3136,
      "стороны": 3137,
      "главный": 3138,
      "сравнению": 3139,
      "плотность": 3140,
      "объектов": 3141,
      "искусственного": 3142,
      "современной": 3143,
      "второй": 3144,
      "средств": 3145,
      "молекулярные": 3146,
      "гидрокси": 3147,
      "углерода": 3148,
      "эволюции": 3149,
      "эндеми": 3150,
      "нужно": 3151,
      "характери": 3152,
      "свойствами": 3153,
      "вероятно": 3154,
      "рубце": 3155,
      "источников": 3156,
      "внутрен": 3157,
      "изучили": 3158,
      "кочевники": 3159,
      "применения": 3160,
      "академика": 3161,
      "остывания": 3162,
      "сердечной": 3163,
      "многие": 3164,
      "многих": 3165,
      "сегодняш": 3166,
      "события": 3167,
      "должны": 3168,
      "фундаментальных": 3169,
      "навли": 3170,
      "рефлектора": 3171,
      "высшего": 3172,
      "калмыкии": 3173,
      "голографи": 3174,
      "обучения": 3175,
      "преимущественно": 3176,
      "затраты": 3177,
      "химиотерапии": 3178,
      "интеллекта": 3179,
      "надеж": 3180,
      "сопровожда": 3181,
      "примере": 3182,
      "большинство": 3183,
      "директора": 3184,
      "каждого": 3185,
      "бизнеса": 3186,
      "ежегод": 3187,
      "чтения": 3188,
      "гибкость": 3189,
      "соединительной": 3190,
      "климата": 3191,
      "ноября": 3192,
      "предот": 3193,
      "подчерки": 3194,
      "расстройства": 3195,
      "алгоритм": 3196,
      "resear": 3197,
      "иглистых": 3198,
      "сеченовского": 3199,
      "инфек": 3200,
      "полисахариды": 3201,
      "cular": 3202,
      "спб": 3203,
      "талантли": 3204,
      "индустри": 3205,
      "тропонина": 3206,
      "смотря": 3207,
      "ructans": 3208,
      "destructans": 3209,
      "иркут": 3210,
      "херсоне": 3211,
      "текуче": 3212,
      "библиоте": 3213,
      "конверген": 3214,
      "иммануила": 3215,
      "molecular": 3216,
      "research": 3217,
      "1б": 3218,
      "da": 3219,
      "dc": 3220,
      "dae": 3221,
      "ki": 3222,
      "mus": 3223,
      "nat": 3224,
      "vi": 3225,
      "wc": 3226,
      "ави": 3227,
      "амер": 3228,
      "бер": 3229,
      "вклад": 3230,
      "дные": 3231,
      "жем": 3232,
      "зло": 3233,
      "ира": 3234,
      "ино": 3235,
      "иных": 3236,
      "иим": 3237,
      "лё": 3238,
      "лений": 3239,
      "лением": 3240,
      "нную": 3241,
      "нными": 3242,
      "опро": 3243,
      "осте": 3244,
      "ологии": 3245,
      "пки": 3246,
      "пять": 3247,
      "рен": 3248,
      "сно": 3249,
      "ске": 3250,
      "сцен": 3251,
      "сразу": 3252,
      "удержа": 3253,
      "уклад": 3254,
      "цова": 3255,
      "чность": 3256,
      "чкова": 3257,
      "чную": 3258,
      "чном": 3259,
      "чению": 3260,
      "шением": 3261,
      "щер": 3262,
      "юр": 3263,
      "ющая": 3264,
      "ёт": 3265,
      "стями": 3266,
      "кости": 3267,
      "костей": 3268,
      "нар": 3269,
      "нагре": 3270,
      "нашли": 3271,
      "насколько": 3272,
      "рост": 3273,
      "роде": 3274,
      "нин": 3275,
      "нике": 3276,
      "нитори": 3277,
      "лим": 3278,
      "литера": 3279,
      "лировать": 3280,
      "поко": 3281,
      "поми": 3282,
      "постави": 3283,
      "постоян": 3284,
      "реж": 3285,
      "теа": 3286,
      "теря": 3287,
      "гораз": 3288,
      "гостей": 3289,
      "тором": 3290,
      "тау": 3291,
      "кита": 3292,
      "кассио": 3293,
      "миру": 3294,
      "тиви": 3295,
      "тием": 3296,
      "тической": 3297,
      "рин": 3298,
      "рина": 3299,
      "риска": 3300,
      "обнов": 3301,
      "мого": 3302,
      "монитори": 3303,
      "вази": 3304,
      "ванием": 3305,
      "водить": 3306,
      "руд": 3307,
      "запуск": 3308,
      "зарубе": 3309,
      "лав": 3310,
      "лами": 3311,
      "неме": 3312,
      "несмотря": 3313,
      "меся": 3314,
      "метр": 3315,
      "межу": 3316,
      "промыш": 3317,
      "промежу": 3318,
      "состоит": 3319,
      "делов": 3320,
      "разго": 3321,
      "выбор": 3322,
      "ляются": 3323,
      "доку": 3324,
      "дозы": 3325,
      "преду": 3326,
      "прекра": 3327,
      "предостав": 3328,
      "пея": 3329,
      "менты": 3330,
      "прием": 3331,
      "пришли": 3332,
      "нового": 3333,
      "изготов": 3334,
      "суб": 3335,
      "столи": 3336,
      "жид": 3337,
      "жиров": 3338,
      "живых": 3339,
      "сек": 3340,
      "хода": 3341,
      "туман": 3342,
      "фон": 3343,
      "мым": 3344,
      "ктива": 3345,
      "отмен": 3346,
      "относи": 3347,
      "дут": 3348,
      "инфра": 3349,
      "инвази": 3350,
      "чих": 3351,
      "чай": 3352,
      "чает": 3353,
      "подроб": 3354,
      "анна": 3355,
      "люди": 3356,
      "роваться": 3357,
      "расще": 3358,
      "участвовали": 3359,
      "повтор": 3360,
      "повлия": 3361,
      "нейших": 3362,
      "сового": 3363,
      "совмести": 3364,
      "образцы": 3365,
      "град": 3366,
      "возник": 3367,
      "исследователей": 3368,
      "смогут": 3369,
      "органов": 3370,
      "знания": 3371,
      "точки": 3372,
      "ics": 3373,
      "медитации": 3374,
      "плане": 3375,
      "универса": 3376,
      "щают": 3377,
      "друго": 3378,
      "центрального": 3379,
      "высоким": 3380,
      "ступи": 3381,
      "треке": 3382,
      "ждение": 3383,
      "среде": 3384,
      "развитию": 3385,
      "арх": 3386,
      "аркти": 3387,
      "сыр": 3388,
      "эффективного": 3389,
      "эффективнее": 3390,
      "явления": 3391,
      "экспертов": 3392,
      "получить": 3393,
      "ющее": 3394,
      "открытие": 3395,
      "конкурсе": 3396,
      "микроорганизмы": 3397,
      "экологии": 3398,
      "участник": 3399,
      "становится": 3400,
      "будущих": 3401,
      "звезда": 3402,
      "число": 3403,
      "буддизма": 3404,
      "нена": 3405,
      "предложения": 3406,
      "земной": 3407,
      "интегра": 3408,
      "льному": 3409,
      "парка": 3410,
      "парках": 3411,
      "связана": 3412,
      "света": 3413,
      "старта": 3414,
      "реаги": 3415,
      "большой": 3416,
      "полевых": 3417,
      "коллектив": 3418,
      "оборуд": 3419,
      "водорода": 3420,
      "патологи": 3421,
      "описы": 3422,
      "описан": 3423,
      "описали": 3424,
      "ционного": 3425,
      "растения": 3426,
      "задача": 3427,
      "территори": 3428,
      "клеточных": 3429,
      "используют": 3430,
      "опухоли": 3431,
      "опухоле": 3432,
      "фермент": 3433,
      "штамма": 3434,
      "космодроме": 3435,
      "обеспечить": 3436,
      "байкаль": 3437,
      "этап": 3438,
      "лекарства": 3439,
      "тысячи": 3440,
      "отлича": 3441,
      "образовательной": 3442,
      "здоровья": 3443,
      "ion": 3444,
      "достижения": 3445,
      "сложных": 3446,
      "находя": 3447,
      "питания": 3448,
      "блока": 3449,
      "происходит": 3450,
      "своих": 3451,
      "предложенный": 3452,
      "гибридных": 3453,
      "аппарата": 3454,
      "радиолока": 3455,
      "наночастицы": 3456,
      "помогают": 3457,
      "группами": 3458,
      "направлениям": 3459,
      "эпилепсией": 3460,
      "согласно": 3461,
      "сверхтекуче": 3462,
      "размножения": 3463,
      "ключевых": 3464,
      "амида": 3465,
      "лкоклеточ": 3466,
      "сферах": 3467,
      "назвали": 3468,
      "информации": 3469,
      "оптими": 3470,
      "лечении": 3471,
      "мерзло": 3472,
      "мерзлых": 3473,
      "устройства": 3474,
      "пройдет": 3475,
      "мышечной": 3476,
      "снизить": 3477,
      "адапта": 3478,
      "адаптации": 3479,
      "элементов": 3480,
      "сосудов": 3481,
      "проводится": 3482,
      "lawc": 3483,
      "trx": 3484,
      "фарма": 3485,
      "спонден": 3486,
      "перспективе": 3487,
      "диметилсульфоксид": 3488,
      "ребя": 3489,
      "использованием": 3490,
      "учитывать": 3491,
      "олити": 3492,
      "госкорпорации": 3493,
      "находится": 3494,
      "возбуди": 3495,
      "солнца": 3496,
      "порядка": 3497,
      "фосфа": 3498,
      "барьеры": 3499,
      "ожо": 3500,
      "сколтеха": 3501,
      "тканях": 3502,
      "аллелей": 3503,
      "персонализирован": 3504,
      "тимидинкиназы": 3505,
      "вшэ": 3506,
      "натрия": 3507,
      "спортсмен": 3508,
      "спбгу": 3509,
      "амери": 3510,
      "иимк": 3511,
      "остео": 3512,
      "литерату": 3513,
      "помимо": 3514,
      "гораздо": 3515,
      "кассиопея": 3516,
      "немелкоклеточ": 3517,
      "bo": 3518,
      "dep": 3519,
      "fest": 3520,
      "lys": 3521,
      "mat": 3522,
      "obacter": 3523,
      "sh": 3524,
      "xi": 3525,
      "бр": 3526,
      "бной": 3527,
      "вд": 3528,
      "вно": 3529,
      "внима": 3530,
      "гк": 3531,
      "дров": 3532,
      "есте": 3533,
      "евой": 3534,
      "жан": 3535,
      "зд": 3536,
      "зрения": 3537,
      "их": 3538,
      "ия": 3539,
      "иться": 3540,
      "ировать": 3541,
      "йо": 3542,
      "лки": 3543,
      "лова": 3544,
      "нта": 3545,
      "окон": 3546,
      "опи": 3547,
      "опас": 3548,
      "осуществ": 3549,
      "псу": 3550,
      "скле": 3551,
      "считы": 3552,
      "семь": 3553,
      "удоб": 3554,
      "хов": 3555,
      "хва": 3556,
      "хру": 3557,
      "чрез": 3558,
      "шки": 3559,
      "шин": 3560,
      "шении": 3561,
      "щении": 3562,
      "щенные": 3563,
      "эули": 3564,
      "стя": 3565,
      "стры": 3566,
      "енти": 3567,
      "рад": 3568,
      "раны": 3569,
      "ране": 3570,
      "райо": 3571,
      "носа": 3572,
      "кола": 3573,
      "кома": 3574,
      "комен": 3575,
      "кому": 3576,
      "нако": 3577,
      "нация": 3578,
      "наземных": 3579,
      "роли": 3580,
      "робо": 3581,
      "роста": 3582,
      "роса": 3583,
      "ниж": 3584,
      "ними": 3585,
      "лина": 3586,
      "лидер": 3587,
      "полов": 3588,
      "показыва": 3589,
      "режи": 3590,
      "рекомен": 3591,
      "теро": 3592,
      "гон": 3593,
      "кими": 3594,
      "капсу": 3595,
      "миха": 3596,
      "минима": 3597,
      "тили": 3598,
      "тиоре": 3599,
      "облуч": 3600,
      "вок": 3601,
      "рую": 3602,
      "рует": 3603,
      "руется": 3604,
      "зав": 3605,
      "зара": 3606,
      "заме": 3607,
      "заяв": 3608,
      "заседа": 3609,
      "ситу": 3610,
      "лах": 3611,
      "лая": 3612,
      "нему": 3613,
      "независи": 3614,
      "неинвази": 3615,
      "месте": 3616,
      "проз": 3617,
      "процен": 3618,
      "протя": 3619,
      "проница": 3620,
      "прогресси": 3621,
      "мастер": 3622,
      "сопостави": 3623,
      "дефици": 3624,
      "гипер": 3625,
      "гипоте": 3626,
      "боро": 3627,
      "бори": 3628,
      "исполни": 3629,
      "разме": 3630,
      "разде": 3631,
      "размер": 3632,
      "выстав": 3633,
      "стала": 3634,
      "станет": 3635,
      "станавли": 3636,
      "ляющие": 3637,
      "дой": 3638,
      "док": 3639,
      "доми": 3640,
      "докси": 3641,
      "ган": 3642,
      "петель": 3643,
      "пепла": 3644,
      "прибо": 3645,
      "приве": 3646,
      "причи": 3647,
      "привле": 3648,
      "новремен": 3649,
      "тые": 3650,
      "тых": 3651,
      "извер": 3652,
      "пути": 3653,
      "путь": 3654,
      "живания": 3655,
      "жительно": 3656,
      "семен": 3657,
      "мыши": 3658,
      "отрас": 3659,
      "частью": 3660,
      "подпис": 3661,
      "конца": 3662,
      "концеп": 3663,
      "писи": 3664,
      "нуть": 3665,
      "нукле": 3666,
      "жела": 3667,
      "предме": 3668,
      "предше": 3669,
      "предстоит": 3670,
      "председа": 3671,
      "собира": 3672,
      "первая": 3673,
      "фикса": 3674,
      "рассмо": 3675,
      "раскры": 3676,
      "расстоя": 3677,
      "распреде": 3678,
      "бани": 3679,
      "бака": 3680,
      "балан": 3681,
      "зимой": 3682,
      "одновремен": 3683,
      "ленгли": 3684,
      "сказыва": 3685,
      "альтер": 3686,
      "воздействие": 3687,
      "сможем": 3688,
      "экстре": 3689,
      "слоях": 3690,
      "российский": 3691,
      "ткань": 3692,
      "шается": 3693,
      "помощи": 3694,
      "перело": 3695,
      "передов": 3696,
      "ici": 3697,
      "плат": 3698,
      "пласти": 3699,
      "щаться": 3700,
      "поддержки": 3701,
      "способные": 3702,
      "эффектов": 3703,
      "эффекта": 3704,
      "высоте": 3705,
      "создавать": 3706,
      "создании": 3707,
      "серье": 3708,
      "темной": 3709,
      "облада": 3710,
      "областях": 3711,
      "трии": 3712,
      "карбо": 3713,
      "больших": 3714,
      "большим": 3715,
      "эффективные": 3716,
      "химической": 3717,
      "химические": 3718,
      "физических": 3719,
      "физиологии": 3720,
      "евг": 3721,
      "тивную": 3722,
      "основу": 3723,
      "показатели": 3724,
      "руковод": 3725,
      "ключи": 3726,
      "особей": 3727,
      "метафор": 3728,
      "космоса": 3729,
      "космонав": 3730,
      "важных": 3731,
      "быстры": 3732,
      "рассказал": 3733,
      "руководителя": 3734,
      "использоваться": 3735,
      "условий": 3736,
      "диало": 3737,
      "пись": 3738,
      "этиленгли": 3739,
      "температурах": 3740,
      "числен": 3741,
      "различным": 3742,
      "грамм": 3743,
      "множе": 3744,
      "многаммару": 3745,
      "структур": 3746,
      "москвы": 3747,
      "москве": 3748,
      "ориенти": 3749,
      "остава": 3750,
      "последу": 3751,
      "препарат": 3752,
      "раясь": 3753,
      "направлению": 3754,
      "существует": 3755,
      "материал": 3756,
      "оценивать": 3757,
      "читают": 3758,
      "повышен": 3759,
      "масса": 3760,
      "сахар": 3761,
      "большого": 3762,
      "бактериолити": 3763,
      "древне": 3764,
      "генеральный": 3765,
      "буддийской": 3766,
      "коллектива": 3767,
      "корпора": 3768,
      "механизмов": 3769,
      "всей": 3770,
      "круг": 3771,
      "тийского": 3772,
      "патогена": 3773,
      "mots": 3774,
      "ционный": 3775,
      "брикс": 3776,
      "правительства": 3777,
      "спект": 3778,
      "спектро": 3779,
      "специфи": 3780,
      "используя": 3781,
      "используется": 3782,
      "зависит": 3783,
      "династи": 3784,
      "являются": 3785,
      "линг": 3786,
      "болезнь": 3787,
      "необходимые": 3788,
      "делам": 3789,
      "самцы": 3790,
      "количества": 3791,
      "psici": 3792,
      "обитания": 3793,
      "защиты": 3794,
      "образовательных": 3795,
      "плотности": 3796,
      "объект": 3797,
      "регуляции": 3798,
      "регулятор": 3799,
      "специалистов": 3800,
      "изучения": 3801,
      "повед": 3802,
      "клетками": 3803,
      "атмосфер": 3804,
      "астероидах": 3805,
      "щему": 3806,
      "современных": 3807,
      "сложные": 3808,
      "взгляд": 3809,
      "ресурс": 3810,
      "тиамин": 3811,
      "президент": 3812,
      "президенте": 3813,
      "продолжи": 3814,
      "финал": 3815,
      "взаимо": 3816,
      "гидраты": 3817,
      "гидратов": 3818,
      "доставки": 3819,
      "нужны": 3820,
      "связь": 3821,
      "вероятность": 3822,
      "подавлять": 3823,
      "скорость": 3824,
      "металло": 3825,
      "экспериментальной": 3826,
      "полезны": 3827,
      "синтезировали": 3828,
      "приняли": 3829,
      "принципу": 3830,
      "книг": 3831,
      "нейтронной": 3832,
      "amma": 3833,
      "встреча": 3834,
      "остывание": 3835,
      "сигналы": 3836,
      "стимулиру": 3837,
      "размножа": 3838,
      "новосибир": 3839,
      "орбиту": 3840,
      "трансля": 3841,
      "сохраня": 3842,
      "срочной": 3843,
      "сфере": 3844,
      "нагрузок": 3845,
      "министра": 3846,
      "максим": 3847,
      "событий": 3848,
      "компонентов": 3849,
      "свойств": 3850,
      "сердце": 3851,
      "клинических": 3852,
      "катализаторы": 3853,
      "квантовой": 3854,
      "костен": 3855,
      "волокон": 3856,
      "выполня": 3857,
      "газовых": 3858,
      "митохондрий": 3859,
      "оказывается": 3860,
      "устрой": 3861,
      "называют": 3862,
      "внезапные": 3863,
      "охла": 3864,
      "опыт": 3865,
      "глубоковод": 3866,
      "воспаления": 3867,
      "метаболизма": 3868,
      "диметилсульфоксида": 3869,
      "пленар": 3870,
      "урбани": 3871,
      "дискусси": 3872,
      "дискуссии": 3873,
      "выявить": 3874,
      "существующие": 3875,
      "солнечной": 3876,
      "коммуникации": 3877,
      "введение": 3878,
      "невро": 3879,
      "астроциты": 3880,
      "компьютер": 3881,
      "телескопа": 3882,
      "финанси": 3883,
      "разнообразие": 3884,
      "совершенно": 3885,
      "аспирантов": 3886,
      "антиконвульсанты": 3887,
      "biology": 3888,
      "capsici": 3889,
      "топлива": 3890,
      "миссия": 3891,
      "пептид": 3892,
      "живут": 3893,
      "водяного": 3894,
      "школьники": 3895,
      "чувстви": 3896,
      "инициати": 3897,
      "disp": 3898,
      "мегагрантов": 3899,
      "освоение": 3900,
      "стартовала": 3901,
      "штаммы": 3902,
      "омматогаммару": 3903,
      "остров": 3904,
      "лишь": 3905,
      "выращи": 3906,
      "космонавтики": 3907,
      "последовательности": 3908,
      "маркеров": 3909,
      "месторождений": 3910,
      "ограничен": 3911,
      "напомина": 3912,
      "нестин": 3913,
      "выносливость": 3914,
      "балтийского": 3915,
      "крайне": 3916,
      "глиобластомы": 3917,
      "всплески": 3918,
      "сегодняшний": 3919,
      "ежегодно": 3920,
      "dc5": 3921,
      "иностран": 3922,
      "поколения": 3923,
      "документа": 3924,
      "туманности": 3925,
      "отменен": 3926,
      "архей": 3927,
      "depdc5": 3928,
      "lysobacter": 3929,
      "опираясь": 3930,
      "эулимногаммару": 3931,
      "тиоредокси": 3932,
      "ситуа": 3933,
      "протяжении": 3934,
      "проницаемо": 3935,
      "фиксации": 3936,
      "альтерна": 3937,
      "серьез": 3938,
      "ammarus": 3939,
      "aer": 3940,
      "b1": 3941,
      "db": 3942,
      "dro": 3943,
      "gae": 3944,
      "haer": 3945,
      "qu": 3946,
      "ugae": 3947,
      "vii": 3948,
      "ари": 3949,
      "азо": 3950,
      "агро": 3951,
      "атрофи": 3952,
      "бан": 3953,
      "вь": 3954,
      "гне": 3955,
      "гря": 3956,
      "дени": 3957,
      "двой": 3958,
      "жений": 3959,
      "жением": 3960,
      "жюри": 3961,
      "зен": 3962,
      "идет": 3963,
      "ищу": 3964,
      "мг": 3965,
      "мя": 3966,
      "нти": 3967,
      "нью": 3968,
      "нгресс": 3969,
      "ото": 3970,
      "ожи": 3971,
      "оке": 3972,
      "окси": 3973,
      "рк": 3974,
      "рение": 3975,
      "рнк": 3976,
      "съ": 3977,
      "сбо": 3978,
      "спа": 3979,
      "свер": 3980,
      "схожи": 3981,
      "сначала": 3982,
      "тв": 3983,
      "тё": 3984,
      "тников": 3985,
      "ука": 3986,
      "увер": 3987,
      "уреа": 3988,
      "удержи": 3989,
      "укре": 3990,
      "хф": 3991,
      "чности": 3992,
      "чными": 3993,
      "чением": 3994,
      "школ": 3995,
      "щение": 3996,
      "ьев": 3997,
      "юби": 3998,
      "яна": 3999,
      "ядер": 4000,
      "овы": 4001,
      "ена": 4002,
      "номы": 4003,
      "кожи": 4004,
      "навы": 4005,
      "роди": 4006,
      "родом": 4007,
      "рождения": 4008,
      "лик": 4009,
      "личи": 4010,
      "листвен": 4011,
      "литр": 4012,
      "линий": 4013,
      "линин": 4014,
      "пое": 4015,
      "поля": 4016,
      "покол": 4017,
      "побы": 4018,
      "рета": 4019,
      "реди": 4020,
      "рева": 4021,
      "решить": 4022,
      "тема": 4023,
      "тепло": 4024,
      "теоре": 4025,
      "городе": 4026,
      "льти": 4027,
      "лего": 4028,
      "лечение": 4029,
      "лежит": 4030,
      "такого": 4031,
      "такому": 4032,
      "кадров": 4033,
      "калинин": 4034,
      "тисти": 4035,
      "тиров": 4036,
      "типов": 4037,
      "тировал": 4038,
      "лой": 4039,
      "лоч": 4040,
      "лоба": 4041,
      "логов": 4042,
      "риск": 4043,
      "оба": 4044,
      "обрета": 4045,
      "мом": 4046,
      "моче": 4047,
      "дия": 4048,
      "дами": 4049,
      "рурги": 4050,
      "циал": 4051,
      "чек": 4052,
      "чему": 4053,
      "четвер": 4054,
      "чером": 4055,
      "зая": 4056,
      "зами": 4057,
      "завер": 4058,
      "заря": 4059,
      "заня": 4060,
      "запла": 4061,
      "заповед": 4062,
      "загря": 4063,
      "сильнее": 4064,
      "лауреа": 4065,
      "нега": 4066,
      "некодиру": 4067,
      "скоязы": 4068,
      "скохозяй": 4069,
      "прое": 4070,
      "проте": 4071,
      "прокоммен": 4072,
      "социаль": 4073,
      "дети": 4074,
      "борода": 4075,
      "бочкова": 4076,
      "рази": 4077,
      "развер": 4078,
      "виру": 4079,
      "выступ": 4080,
      "выбира": 4081,
      "стах": 4082,
      "стами": 4083,
      "статисти": 4084,
      "скими": 4085,
      "веке": 4086,
      "вечер": 4087,
      "вечером": 4088,
      "галакти": 4089,
      "папоро": 4090,
      "ментов": 4091,
      "прив": 4092,
      "примени": 4093,
      "новгород": 4094,
      "емый": 4095,
      "тельств": 4096,
      "тельстве": 4097,
      "избе": 4098,
      "изнача": 4099,
      "изобра": 4100,
      "избира": 4101,
      "жила": 4102,
      "жиры": 4103,
      "жирные": 4104,
      "сеть": 4105,
      "ковой": 4106,
      "мысли": 4107,
      "ранения": 4108,
      "мут": 4109,
      "мульти": 4110,
      "ктировать": 4111,
      "отдела": 4112,
      "духов": 4113,
      "чий": 4114,
      "подви": 4115,
      "подве": 4116,
      "антон": 4117,
      "фео": 4118,
      "жел": 4119,
      "люби": 4120,
      "предприя": 4121,
      "предвари": 4122,
      "ровано": 4123,
      "рованной": 4124,
      "собра": 4125,
      "собственного": 4126,
      "рассе": 4127,
      "рассматри": 4128,
      "зии": 4129,
      "близи": 4130,
      "ближа": 4131,
      "лень": 4132,
      "нейтри": 4133,
      "биохимии": 4134,
      "биомедицине": 4135,
      "цели": 4136,
      "целе": 4137,
      "осенью": 4138,
      "слое": 4139,
      "слои": 4140,
      "слоев": 4141,
      "значения": 4142,
      "золо": 4143,
      "термо": 4144,
      "родствен": 4145,
      "точного": 4146,
      "точность": 4147,
      "тками": 4148,
      "помочь": 4149,
      "переизда": 4150,
      "передовых": 4151,
      "ica": 4152,
      "ical": 4153,
      "исследованиях": 4154,
      "медиа": 4155,
      "щать": 4156,
      "щается": 4157,
      "хирурги": 4158,
      "поддержа": 4159,
      "разработ": 4160,
      "пыль": 4161,
      "провод": 4162,
      "способна": 4163,
      "способствовать": 4164,
      "которую": 4165,
      "нервных": 4166,
      "женные": 4167,
      "женщи": 4168,
      "высокие": 4169,
      "высокого": 4170,
      "высокая": 4171,
      "трека": 4172,
      "никам": 4173,
      "использование": 4174,
      "архи": 4175,
      "область": 4176,
      "курга": 4177,
      "кардио": 4178,
      "большая": 4179,
      "эффективности": 4180,
      "ходя": 4181,
      "ченко": 4182,
      "ченные": 4183,
      "евро": 4184,
      "объя": 4185,
      "объем": 4186,
      "основы": 4187,
      "основой": 4188,
      "эксперт": 4189,
      "эксперты": 4190,
      "емом": 4191,
      "получен": 4192,
      "получения": 4193,
      "получили": 4194,
      "государственный": 4195,
      "ключения": 4196,
      "организм": 4197,
      "открывают": 4198,
      "синхро": 4199,
      "крае": 4200,
      "космосе": 4201,
      "микрокамер": 4202,
      "трудно": 4203,
      "быстре": 4204,
      "кислотой": 4205,
      "участниками": 4206,
      "терапию": 4207,
      "условиям": 4208,
      "матического": 4209,
      "eri": 4210,
      "определять": 4211,
      "разработанные": 4212,
      "разработанная": 4213,
      "обнаружения": 4214,
      "клады": 4215,
      "класс": 4216,
      "температур": 4217,
      "температуре": 4218,
      "граммы": 4219,
      "регистра": 4220,
      "взры": 4221,
      "сотрудниче": 4222,
      "культиви": 4223,
      "проведен": 4224,
      "изменя": 4225,
      "поврежда": 4226,
      "поврежден": 4227,
      "нейроны": 4228,
      "брон": 4229,
      "интересу": 4230,
      "направлении": 4231,
      "ведущие": 4232,
      "экспериментах": 4233,
      "уровнем": 4234,
      "обез": 4235,
      "формирования": 4236,
      "зового": 4237,
      "повышения": 4238,
      "связан": 4239,
      "связанных": 4240,
      "свети": 4241,
      "радикал": 4242,
      "ствовало": 4243,
      "необы": 4244,
      "энергия": 4245,
      "случаи": 4246,
      "представленных": 4247,
      "функцию": 4248,
      "буддийского": 4249,
      "комплексов": 4250,
      "комплексы": 4251,
      "значит": 4252,
      "история": 4253,
      "коллеги": 4254,
      "регионов": 4255,
      "глуб": 4256,
      "водой": 4257,
      "выяснить": 4258,
      "потенциал": 4259,
      "русскоязы": 4260,
      "контроля": 4261,
      "контрольной": 4262,
      "пространстве": 4263,
      "десятки": 4264,
      "генетики": 4265,
      "служат": 4266,
      "росконгресс": 4267,
      "международных": 4268,
      "мероприятие": 4269,
      "язык": 4270,
      "участием": 4271,
      "самой": 4272,
      "известный": 4273,
      "угро": 4274,
      "водили": 4275,
      "моделирования": 4276,
      "производство": 4277,
      "школа": 4278,
      "болезней": 4279,
      "площадкой": 4280,
      "восточного": 4281,
      "делает": 4282,
      "самцов": 4283,
      "сравнения": 4284,
      "обитают": 4285,
      "обитающих": 4286,
      "принимавших": 4287,
      "байкон": 4288,
      "лекарственных": 4289,
      "монта": 4290,
      "отличаются": 4291,
      "здоровых": 4292,
      "здоровые": 4293,
      "реализу": 4294,
      "фотодинами": 4295,
      "чевского": 4296,
      "щиеся": 4297,
      "common": 4298,
      "аналоги": 4299,
      "обычных": 4300,
      "победителей": 4301,
      "гриба": 4302,
      "данными": 4303,
      "недостаточности": 4304,
      "происхо": 4305,
      "испыту": 4306,
      "подтвердили": 4307,
      "подтверждает": 4308,
      "традиции": 4309,
      "проводить": 4310,
      "тяжелых": 4311,
      "своими": 4312,
      "гибридного": 4313,
      "гибридный": 4314,
      "онкологии": 4315,
      "заживление": 4316,
      "скорости": 4317,
      "металлов": 4318,
      "синтезировать": 4319,
      "принять": 4320,
      "подобных": 4321,
      "компаний": 4322,
      "книги": 4323,
      "токсичных": 4324,
      "сталки": 4325,
      "статьи": 4326,
      "применение": 4327,
      "нейтронных": 4328,
      "ami": 4329,
      "орбита": 4330,
      "tsugae": 4331,
      "срок": 4332,
      "отража": 4333,
      "фестиваль": 4334,
      "экспедиция": 4335,
      "быстрое": 4336,
      "миллионы": 4337,
      "квантовых": 4338,
      "ракови": 4339,
      "поисковых": 4340,
      "лечению": 4341,
      "памят": 4342,
      "память": 4343,
      "сетки": 4344,
      "возникают": 4345,
      "фрагмент": 4346,
      "фрагменты": 4347,
      "калмыкия": 4348,
      "красно": 4349,
      "регенерацию": 4350,
      "головного": 4351,
      "головном": 4352,
      "морфо": 4353,
      "соответственно": 4354,
      "детально": 4355,
      "признаки": 4356,
      "предположили": 4357,
      "молекулярной": 4358,
      "tech": 4359,
      "вместе": 4360,
      "диони": 4361,
      "сообщи": 4362,
      "сообщает": 4363,
      "берестя": 4364,
      "регулируют": 4365,
      "владимир": 4366,
      "семейство": 4367,
      "вызван": 4368,
      "ссиона": 4369,
      "комбинирован": 4370,
      "использовании": 4371,
      "класса": 4372,
      "выявили": 4373,
      "борьбе": 4374,
      "борьбы": 4375,
      "media": 4376,
      "герма": 4377,
      "украшений": 4378,
      "ростовской": 4379,
      "массив": 4380,
      "бокоплавы": 4381,
      "отсутствие": 4382,
      "поддерживать": 4383,
      "требует": 4384,
      "каждый": 4385,
      "антиконвульсантов": 4386,
      "сделать": 4387,
      "когнитивную": 4388,
      "посетили": 4389,
      "эффекты": 4390,
      "психиа": 4391,
      "служба": 4392,
      "стратосферные": 4393,
      "очистки": 4394,
      "шоу": 4395,
      "колеба": 4396,
      "мирового": 4397,
      "выбрали": 4398,
      "доказали": 4399,
      "сельскохозяй": 4400,
      "филогенети": 4401,
      "дрозофил": 4402,
      "секунду": 4403,
      "вулканического": 4404,
      "science": 4405,
      "выживаемость": 4406,
      "шелкопряда": 4407,
      "wiki": 4408,
      "зерка": 4409,
      "озера": 4410,
      "увидеть": 4411,
      "тренинга": 4412,
      "партнер": 4413,
      "второго": 4414,
      "сплайсингов": 4415,
      "фотосенсибилизаторов": 4416,
      "gaia": 4417,
      "subtsugae": 4418,
      "tardisp": 4419,
      "горячих": 4420,
      "содержит": 4421,
      "гибели": 4422,
      "бомбора": 4423,
      "фолиевой": 4424,
      "характеристи": 4425,
      "рубцевание": 4426,
      "голографической": 4427,
      "предотвра": 4428,
      "подчеркивают": 4429,
      "талантливой": 4430,
      "иркутского": 4431,
      "авиа": 4432,
      "злокаче": 4433,
      "удержания": 4434,
      "постоянно": 4435,
      "режис": 4436,
      "китай": 4437,
      "мониторинга": 4438,
      "лавли": 4439,
      "оборудования": 4440,
      "остеопоро": 4441,
      "festtech": 4442,
      "склеп": 4443,
      "росатом": 4444,
      "процентов": 4445,
      "бороться": 4446,
      "отрасли": 4447,
      "множество": 4448,
      "ищут": 4449,
      "личинок": 4450,
      "калининград": 4451,
      "лобачевского": 4452,
      "загряз": 4453,
      "изначально": 4454,
      "быстрее": 4455,
      "commons": 4456,
      "wikimedia": 4457,
      "tardisphaer": 4458,
      "ad": 4459,
      "ak": 4460,
      "acom": 4461,
      "bh": 4462,
      "ces": 4463,
      "gr": 4464,
      "gen": 4465,
      "hc": 4466,
      "id": 4467,
      "me": 4468,
      "mhc": 4469,
      "out": 4470,
      "sa": 4471,
      "to": 4472,
      "tub": 4473,
      "yout": 4474,
      "аб": 4475,
      "ареа": 4476,
      "бов": 4477,
      "бре": 4478,
      "бран": 4479,
      "вени": 4480,
      "вшего": 4481,
      "вблизи": 4482,
      "дя": 4483,
      "дне": 4484,
      "днев": 4485,
      "едения": 4486,
      "жер": 4487,
      "зей": 4488,
      "зос": 4489,
      "зву": 4490,
      "ие": 4491,
      "ими": 4492,
      "ива": 4493,
      "иден": 4494,
      "йн": 4495,
      "кг": 4496,
      "кей": 4497,
      "мэ": 4498,
      "мле": 4499,
      "нп": 4500,
      "нц": 4501,
      "ог": 4502,
      "офи": 4503,
      "озна": 4504,
      "ольно": 4505,
      "рё": 4506,
      "рно": 4507,
      "сша": 4508,
      "справ": 4509,
      "сферы": 4510,
      "тю": 4511,
      "тными": 4512,
      "тцев": 4513,
      "ура": 4514,
      "уль": 4515,
      "уси": 4516,
      "указа": 4517,
      "усво": 4518,
      "фан": 4519,
      "фрак": 4520,
      "фено": 4521,
      "хма": 4522,
      "хан": 4523,
      "цер": 4524,
      "цвет": 4525,
      "чта": 4526,
      "чное": 4527,
      "члены": 4528,
      "шком": 4529,
      "ьше": 4530,
      "эр": 4531,
      "эпо": 4532,
      "яков": 4533,
      "ядов": 4534,
      "енно": 4535,
      "рако": 4536,
      "расту": 4537,
      "коры": 4538,
      "копита": 4539,
      "коопера": 4540,
      "наш": 4541,
      "нахо": 4542,
      "назна": 4543,
      "наших": 4544,
      "набор": 4545,
      "напря": 4546,
      "нагори": 4547,
      "находить": 4548,
      "народов": 4549,
      "никола": 4550,
      "листь": 4551,
      "липи": 4552,
      "лизации": 4553,
      "похожи": 4554,
      "рее": 4555,
      "реду": 4556,
      "теп": 4557,
      "тета": 4558,
      "лед": 4559,
      "лета": 4560,
      "лева": 4561,
      "лечи": 4562,
      "лежа": 4563,
      "лечен": 4564,
      "летию": 4565,
      "кише": 4566,
      "кирин": 4567,
      "кате": 4568,
      "камен": 4569,
      "каких": 4570,
      "мино": 4571,
      "мици": 4572,
      "миссии": 4573,
      "минут": 4574,
      "тип": 4575,
      "тики": 4576,
      "тимо": 4577,
      "тировать": 4578,
      "тинен": 4579,
      "лон": 4580,
      "лососе": 4581,
      "риски": 4582,
      "обсерва": 4583,
      "моди": 4584,
      "момент": 4585,
      "дий": 4586,
      "дис": 4587,
      "диза": 4588,
      "вах": 4589,
      "вави": 4590,
      "вании": 4591,
      "вающего": 4592,
      "ваемых": 4593,
      "водов": 4594,
      "вошли": 4595,
      "дать": 4596,
      "данной": 4597,
      "рующих": 4598,
      "чета": 4599,
      "зако": 4600,
      "затруд": 4601,
      "зарегистри": 4602,
      "сири": 4603,
      "сильно": 4604,
      "лам": 4605,
      "лап": 4606,
      "несколь": 4607,
      "невозможно": 4608,
      "недрах": 4609,
      "мечта": 4610,
      "мари": 4611,
      "мальных": 4612,
      "малых": 4613,
      "сок": 4614,
      "состо": 4615,
      "состави": 4616,
      "сочета": 4617,
      "дело": 4618,
      "депре": 4619,
      "деления": 4620,
      "деше": 4621,
      "детей": 4622,
      "разными": 4623,
      "разгру": 4624,
      "разделили": 4625,
      "рых": 4626,
      "визи": 4627,
      "визу": 4628,
      "вым": 4629,
      "выми": 4630,
      "вычис": 4631,
      "выдыха": 4632,
      "выступа": 4633,
      "выделили": 4634,
      "вычай": 4635,
      "стана": 4636,
      "дор": 4637,
      "дома": 4638,
      "досто": 4639,
      "дозу": 4640,
      "превы": 4641,
      "превра": 4642,
      "препят": 4643,
      "презен": 4644,
      "гар": 4645,
      "пад": 4646,
      "пале": 4647,
      "самая": 4648,
      "печа": 4649,
      "пещер": 4650,
      "кури": 4651,
      "прие": 4652,
      "прибор": 4653,
      "приема": 4654,
      "принад": 4655,
      "припад": 4656,
      "нови": 4657,
      "новод": 4658,
      "емся": 4659,
      "тельная": 4660,
      "тельным": 4661,
      "избы": 4662,
      "измени": 4663,
      "следую": 4664,
      "стои": 4665,
      "стом": 4666,
      "сей": 4667,
      "середи": 4668,
      "секирин": 4669,
      "фоку": 4670,
      "фокус": 4671,
      "раньше": 4672,
      "мусо": 4673,
      "музей": 4674,
      "отта": 4675,
      "инфрак": 4676,
      "чивают": 4677,
      "конфер": 4678,
      "конкре": 4679,
      "консерва": 4680,
      "континен": 4681,
      "пищи": 4682,
      "научном": 4683,
      "антро": 4684,
      "люмине": 4685,
      "людь": 4686,
      "генер": 4687,
      "генной": 4688,
      "геноме": 4689,
      "лового": 4690,
      "предлага": 4691,
      "дыру": 4692,
      "ктивной": 4693,
      "ровав": 4694,
      "собствен": 4695,
      "первой": 4696,
      "перио": 4697,
      "первую": 4698,
      "фиц": 4699,
      "фика": 4700,
      "фиоле": 4701,
      "распозна": 4702,
      "базе": 4703,
      "рят": 4704,
      "рядом": 4705,
      "шими": 4706,
      "участвует": 4707,
      "ственным": 4708,
      "повис": 4709,
      "наукой": 4710,
      "россия": 4711,
      "одни": 4712,
      "ленно": 4713,
      "ценно": 4714,
      "ценный": 4715,
      "ценностей": 4716,
      "совпа": 4717,
      "ниях": 4718,
      "биоти": 4719,
      "биотехнологий": 4720,
      "биомедицинских": 4721,
      "биосовмести": 4722,
      "полно": 4723,
      "скан": 4724,
      "сказал": 4725,
      "образова": 4726,
      "альбу": 4727,
      "споры": 4728,
      "возра": 4729,
      "возраста": 4730,
      "возобнов": 4731,
      "лекции": 4732,
      "довольно": 4733,
      "строили": 4734,
      "тропи": 4735,
      "осве": 4736,
      "смогли": 4737,
      "опубликована": 4738,
      "шел": 4739,
      "шель": 4740,
      "шесть": 4741,
      "экзо": 4742,
      "экзос": 4743,
      "слоя": 4744,
      "зона": 4745,
      "низко": 4746,
      "шалов": 4747,
      "лучей": 4748,
      "тиях": 4749,
      "перед": 4750,
      "переме": 4751,
      "переработка": 4752,
      "переживания": 4753,
      "активностью": 4754,
      "inter": 4755,
      "гели": 4756,
      "гетеро": 4757,
      "результат": 4758,
      "снижению": 4759,
      "снижают": 4760,
      "тория": 4761,
      "стую": 4762,
      "трели": 4763,
      "наличие": 4764,
      "ствующих": 4765,
      "глава": 4766,
      "плодов": 4767,
      "плодовых": 4768,
      "одина": 4769,
      "мышь": 4770,
      "серии": 4771,
      "обладает": 4772,
      "параметра": 4773,
      "эффективных": 4774,
      "эффективный": 4775,
      "химия": 4776,
      "химического": 4777,
      "группу": 4778,
      "физика": 4779,
      "физиологи": 4780,
      "тивно": 4781,
      "тивными": 4782,
      "объяв": 4783,
      "объема": 4784,
      "основных": 4785,
      "основные": 4786,
      "основном": 4787,
      "показать": 4788,
      "можем": 4789,
      "должен": 4790,
      "пределах": 4791,
      "получение": 4792,
      "получав": 4793,
      "жут": 4794,
      "истон": 4795,
      "годах": 4796,
      "открытий": 4797,
      "конкурен": 4798,
      "воспроиз": 4799,
      "метан": 4800,
      "метана": 4801,
      "микроорганизмов": 4802,
      "методом": 4803,
      "рассказа": 4804,
      "участникам": 4805,
      "определен": 4806,
      "космические": 4807,
      "космическим": 4808,
      "обнаружить": 4809,
      "класси": 4810,
      "температура": 4811,
      "астрономы": 4812,
      "оказалась": 4813,
      "фанагори": 4814,
      "полина": 4815,
      "спутник": 4816,
      "ментального": 4817,
      "структуре": 4818,
      "состоялся": 4819,
      "изменений": 4820,
      "нейронаук": 4821,
      "влияния": 4822,
      "орион": 4823,
      "остатки": 4824,
      "остатков": 4825,
      "черны": 4826,
      "черную": 4827,
      "интере": 4828,
      "ведут": 4829,
      "частица": 4830,
      "лучшие": 4831,
      "формируются": 4832,
      "колонии": 4833,
      "повышению": 4834,
      "слишком": 4835,
      "связали": 4836,
      "моноэтиленгли": 4837,
      "антибиоти": 4838,
      "видео": 4839,
      "случай": 4840,
      "случаях": 4841,
      "длительное": 4842,
      "практике": 4843,
      "позволила": 4844,
      "синтез": 4845,
      "человеческого": 4846,
      "историю": 4847,
      "регион": 4848,
      "регионе": 4849,
      "chem": 4850,
      "оборо": 4851,
      "обоих": 4852,
      "оболоч": 4853,
      "механизма": 4854,
      "жизнен": 4855,
      "удается": 4856,
      "общее": 4857,
      "давление": 4858,
      "русском": 4859,
      "представили": 4860,
      "фиброз": 4861,
      "десятков": 4862,
      "служить": 4863,
      "молодые": 4864,
      "задачу": 4865,
      "маршалов": 4866,
      "содержащих": 4867,
      "астрономии": 4868,
      "проблемы": 4869,
      "самое": 4870,
      "известных": 4871,
      "наиболь": 4872,
      "понятно": 4873,
      "моделирование": 4874,
      "производных": 4875,
      "ogammarus": 4876,
      "концентрацию": 4877,
      "болезнет": 4878,
      "экономического": 4879,
      "движение": 4880,
      "самки": 4881,
      "space": 4882,
      "ионо": 4883,
      "деятельность": 4884,
      "главных": 4885,
      "чуви": 4886,
      "спикер": 4887,
      "этапе": 4888,
      "образовательного": 4889,
      "образовательные": 4890,
      "регуляторы": 4891,
      "регуляторных": 4892,
      "редко": 4893,
      "реализова": 4894,
      "достига": 4895,
      "атмосфе": 4896,
      "вторая": 4897,
      "увеличение": 4898,
      "находки": 4899,
      "находятся": 4900,
      "противоэпилепти": 4901,
      "противогриб": 4902,
      "образовании": 4903,
      "заболеваниях": 4904,
      "продолжить": 4905,
      "гидроби": 4906,
      "станций": 4907,
      "санти": 4908,
      "наблюдать": 4909,
      "углерод": 4910,
      "управлять": 4911,
      "данный": 4912,
      "данным": 4913,
      "недостаточность": 4914,
      "распространения": 4915,
      "распространенных": 4916,
      "блоки": 4917,
      "глоба": 4918,
      "миофибробластов": 4919,
      "происходят": 4920,
      "северной": 4921,
      "конструк": 4922,
      "ангары": 4923,
      "онко": 4924,
      "подавля": 4925,
      "рубцов": 4926,
      "получат": 4927,
      "источником": 4928,
      "металла": 4929,
      "полезно": 4930,
      "вопрос": 4931,
      "вопросов": 4932,
      "степени": 4933,
      "степня": 4934,
      "степень": 4935,
      "энергетических": 4936,
      "принципи": 4937,
      "lif": 4938,
      "ube": 4939,
      "крити": 4940,
      "стери": 4941,
      "системе": 4942,
      "активиру": 4943,
      "академии": 4944,
      "встречаются": 4945,
      "сверхплот": 4946,
      "сигнал": 4947,
      "сигналов": 4948,
      "подходов": 4949,
      "орбите": 4950,
      "сердечного": 4951,
      "молодеж": 4952,
      "культурного": 4953,
      "текст": 4954,
      "министер": 4955,
      "должна": 4956,
      "долгосрочной": 4957,
      "глубинах": 4958,
      "катализаторов": 4959,
      "вовлечен": 4960,
      "оптима": 4961,
      "установили": 4962,
      "установить": 4963,
      "костной": 4964,
      "медленных": 4965,
      "памяти": 4966,
      "сахалинской": 4967,
      "древней": 4968,
      "актё": 4969,
      "узнать": 4970,
      "наследники": 4971,
      "позиции": 4972,
      "тестирования": 4973,
      "тестирование": 4974,
      "пищевые": 4975,
      "участвующего": 4976,
      "возникает": 4977,
      "трехмер": 4978,
      "внезапного": 4979,
      "организаторы": 4980,
      "интересно": 4981,
      "профессора": 4982,
      "инженерии": 4983,
      "петра": 4984,
      "элементы": 4985,
      "нижегородского": 4986,
      "подави": 4987,
      "регенерации": 4988,
      "состава": 4989,
      "доступны": 4990,
      "измеря": 4991,
      "предположительно": 4992,
      "глубокая": 4993,
      "водородного": 4994,
      "патогенные": 4995,
      "преимущество": 4996,
      "вместо": 4997,
      "емая": 4998,
      "далее": 4999,
      "симпто": 5000,
      "вызывать": 5001,
      "отношению": 5002,
      "интерпре": 5003,
      "инструмент": 5004,
      "воспаление": 5005,
      "факторов": 5006,
      "крупные": 5007,
      "сравнили": 5008,
      "перспективы": 5009,
      "отвечающих": 5010,
      "улучшить": 5011,
      "юрий": 5012,
      "раскопки": 5013,
      "паттерн": 5014,
      "расположен": 5015,
      "проверить": 5016,
      "антимикробных": 5017,
      "реакцию": 5018,
      "описать": 5019,
      "спектральных": 5020,
      "яркость": 5021,
      "теории": 5022,
      "бокоплавов": 5023,
      "выявления": 5024,
      "газопроницаемо": 5025,
      "пилотиру": 5026,
      "компьюте": 5027,
      "добавление": 5028,
      "каждым": 5029,
      "иммунотерапии": 5030,
      "прогнозирования": 5031,
      "петербургского": 5032,
      "отслеживать": 5033,
      "ничева": 5034,
      "познакоми": 5035,
      "понимание": 5036,
      "посетить": 5037,
      "миссий": 5038,
      "соседей": 5039,
      "уникальный": 5040,
      "эффект": 5041,
      "трюфеля": 5042,
      "трюфелей": 5043,
      "словам": 5044,
      "взрослых": 5045,
      "масштаб": 5046,
      "школьников": 5047,
      "популяриза": 5048,
      "найдена": 5049,
      "нагрузки": 5050,
      "инициатив": 5051,
      "наставников": 5052,
      "побочных": 5053,
      "побочные": 5054,
      "задержки": 5055,
      "ингибиторов": 5056,
      "дрозофилы": 5057,
      "объясня": 5058,
      "синдрома": 5059,
      "максимально": 5060,
      "секунды": 5061,
      "цифровых": 5062,
      "столкнов": 5063,
      "саратовского": 5064,
      "выживаемости": 5065,
      "олео": 5066,
      "слюне": 5067,
      "мелковод": 5068,
      "продемонстрировали": 5069,
      "разнесенные": 5070,
      "музыкаль": 5071,
      "уничтожения": 5072,
      "метанол": 5073,
      "произошли": 5074,
      "климатической": 5075,
      "здравоох": 5076,
      "здравомысли": 5077,
      "координационного": 5078,
      "стандарт": 5079,
      "astro": 5080,
      "змей": 5081,
      "свидетель": 5082,
      "зафиксировали": 5083,
      "непарного": 5084,
      "педагоги": 5085,
      "осложнения": 5086,
      "экстрактов": 5087,
      "трихостатин": 5088,
      "нейродегенеративных": 5089,
      "монолитные": 5090,
      "добычи": 5091,
      "водорослей": 5092,
      "продуктах": 5093,
      "внутреннего": 5094,
      "нагрев": 5095,
      "театра": 5096,
      "таупа": 5097,
      "промежуточ": 5098,
      "возникнов": 5099,
      "ненасы": 5100,
      "сверхтекучести": 5101,
      "trxr": 5102,
      "ребята": 5103,
      "ожога": 5104,
      "спортсменов": 5105,
      "америке": 5106,
      "гкнп": 5107,
      "оконча": 5108,
      "хруничева": 5109,
      "чрезвычай": 5110,
      "независимо": 5111,
      "прозрач": 5112,
      "прогрессирования": 5113,
      "предметы": 5114,
      "предшествен": 5115,
      "председателя": 5116,
      "одновременно": 5117,
      "евгений": 5118,
      "руководством": 5119,
      "спектры": 5120,
      "трансляция": 5121,
      "глубоководные": 5122,
      "омматогаммарусов": 5123,
      "иностранных": 5124,
      "эулимногаммаруса": 5125,
      "тиоредоксин": 5126,
      "dbs": 5127,
      "азота": 5128,
      "вьет": 5129,
      "денис": 5130,
      "юбилей": 5131,
      "мочеточ": 5132,
      "заявок": 5133,
      "заряженных": 5134,
      "запланирован": 5135,
      "лауреат": 5136,
      "проекти": 5137,
      "прокомментировал": 5138,
      "галактике": 5139,
      "избежать": 5140,
      "подвиж": 5141,
      "объясни": 5142,
      "байконур": 5143,
      "испытуемых": 5144,
      "раковины": 5145,
      "краснодар": 5146,
      "acomys": 5147,
      "bh3": 5148,
      "tuber": 5149,
      "youtube": 5150,
      "иденти": 5151,
      "млекопита": 5152,
      "официаль": 5153,
      "напрямую": 5154,
      "состоится": 5155,
      "разгруз": 5156,
      "следующем": 5157,
      "секиринский": 5158,
      "инфракрас": 5159,
      "конферен": 5160,
      "людьми": 5161,
      "фиолетов": 5162,
      "болезнетво": 5163,
      "здравомыслие": 5164,
      "гкнпц": 5165,
      "млекопитающих": 5166,
      "ap": 5167,
      "bii": 5168,
      "ea": 5169,
      "ew": 5170,
      "ex": 5171,
      "eco": 5172,
      "evo": 5173,
      "for": 5174,
      "fre": 5175,
      "gnat": 5176,
      "hy": 5177,
      "il": 5178,
      "ko": 5179,
      "lor": 5180,
      "lut": 5181,
      "ob": 5182,
      "oid": 5183,
      "par": 5184,
      "so": 5185,
      "ta": 5186,
      "tro": 5187,
      "van": 5188,
      "аф": 5189,
      "аци": 5190,
      "агресси": 5191,
      "вис": 5192,
      "вдо": 5193,
      "вторы": 5194,
      "вского": 5195,
      "вча": 5196,
      "вня": 5197,
      "входит": 5198,
      "вяз": 5199,
      "гова": 5200,
      "дю": 5201,
      "дни": 5202,
      "джа": 5203,
      "его": 5204,
      "ека": 5205,
      "жены": 5206,
      "зво": 5207,
      "зор": 5208,
      "идей": 5209,
      "ирина": 5210,
      "клы": 5211,
      "креа": 5212,
      "лков": 5213,
      "ллю": 5214,
      "луча": 5215,
      "лучи": 5216,
      "мятся": 5217,
      "мкс": 5218,
      "мнению": 5219,
      "нг": 5220,
      "нт": 5221,
      "нх": 5222,
      "нте": 5223,
      "ока": 5224,
      "оку": 5225,
      "оши": 5226,
      "омер": 5227,
      "омици": 5228,
      "птом": 5229,
      "пяти": 5230,
      "рту": 5231,
      "рный": 5232,
      "рпи": 5233,
      "рхи": 5234,
      "сени": 5235,
      "сной": 5236,
      "схе": 5237,
      "тгенов": 5238,
      "уз": 5239,
      "уро": 5240,
      "упро": 5241,
      "утвер": 5242,
      "уху": 5243,
      "употреб": 5244,
      "хвое": 5245,
      "чна": 5246,
      "чении": 5247,
      "шло": 5248,
      "шма": 5249,
      "шан": 5250,
      "ъэ": 5251,
      "ъек": 5252,
      "эна": 5253,
      "ян": 5254,
      "яро": 5255,
      "ядрах": 5256,
      "стке": 5257,
      "сттрав": 5258,
      "стям": 5259,
      "енко": 5260,
      "енными": 5261,
      "раком": 5262,
      "ранор": 5263,
      "ранами": 5264,
      "рархи": 5265,
      "номер": 5266,
      "носят": 5267,
      "настро": 5268,
      "напис": 5269,
      "намного": 5270,
      "напротив": 5271,
      "нацели": 5272,
      "рос": 5273,
      "роды": 5274,
      "никова": 5275,
      "пой": 5276,
      "пок": 5277,
      "пон": 5278,
      "пору": 5279,
      "поса": 5280,
      "посе": 5281,
      "поря": 5282,
      "полей": 5283,
      "постанов": 5284,
      "пояс": 5285,
      "погоды": 5286,
      "посттрав": 5287,
      "рели": 5288,
      "ремо": 5289,
      "реши": 5290,
      "реконстру": 5291,
      "рецеп": 5292,
      "респонден": 5293,
      "тет": 5294,
      "лье": 5295,
      "льности": 5296,
      "льными": 5297,
      "лежат": 5298,
      "тока": 5299,
      "тому": 5300,
      "тая": 5301,
      "тация": 5302,
      "кипа": 5303,
      "кислых": 5304,
      "кирпи": 5305,
      "кать": 5306,
      "каса": 5307,
      "мита": 5308,
      "мином": 5309,
      "миром": 5310,
      "мишен": 5311,
      "типи": 5312,
      "тических": 5313,
      "рить": 5314,
      "ристи": 5315,
      "рица": 5316,
      "риском": 5317,
      "рисков": 5318,
      "общи": 5319,
      "обстру": 5320,
      "облом": 5321,
      "мок": 5322,
      "могла": 5323,
      "моллю": 5324,
      "дикта": 5325,
      "вар": 5326,
      "вации": 5327,
      "вален": 5328,
      "ванию": 5329,
      "воро": 5330,
      "вода": 5331,
      "вости": 5332,
      "дая": 5333,
      "дации": 5334,
      "руси": 5335,
      "чем": 5336,
      "челе": 5337,
      "честву": 5338,
      "ческому": 5339,
      "замен": 5340,
      "заготов": 5341,
      "заключа": 5342,
      "замени": 5343,
      "засахари": 5344,
      "захоро": 5345,
      "захва": 5346,
      "записи": 5347,
      "сия": 5348,
      "лад": 5349,
      "ланд": 5350,
      "неве": 5351,
      "неформа": 5352,
      "нестаби": 5353,
      "небес": 5354,
      "место": 5355,
      "скопи": 5356,
      "скорее": 5357,
      "проф": 5358,
      "проник": 5359,
      "проходи": 5360,
      "прогрес": 5361,
      "прошли": 5362,
      "пропуска": 5363,
      "протести": 5364,
      "проходить": 5365,
      "просвети": 5366,
      "масло": 5367,
      "малень": 5368,
      "мамонта": 5369,
      "сор": 5370,
      "соору": 5371,
      "дека": 5372,
      "депар": 5373,
      "дегидро": 5374,
      "детек": 5375,
      "гисто": 5376,
      "гипера": 5377,
      "бой": 5378,
      "ботро": 5379,
      "исче": 5380,
      "разбо": 5381,
      "разобра": 5382,
      "вик": 5383,
      "вича": 5384,
      "витации": 5385,
      "вирту": 5386,
      "выда": 5387,
      "выход": 5388,
      "вывод": 5389,
      "выбро": 5390,
      "выгод": 5391,
      "вырабаты": 5392,
      "выступи": 5393,
      "выбран": 5394,
      "стади": 5395,
      "стату": 5396,
      "стадии": 5397,
      "весь": 5398,
      "достов": 5399,
      "прео": 5400,
      "превос": 5401,
      "превраща": 5402,
      "газ": 5403,
      "гари": 5404,
      "пали": 5405,
      "пада": 5406,
      "пане": 5407,
      "патии": 5408,
      "сату": 5409,
      "сатира": 5410,
      "пей": 5411,
      "привы": 5412,
      "приим": 5413,
      "присту": 5414,
      "прият": 5415,
      "привод": 5416,
      "приклад": 5417,
      "применяется": 5418,
      "привести": 5419,
      "присоедини": 5420,
      "приводить": 5421,
      "причем": 5422,
      "новом": 5423,
      "тывают": 5424,
      "тельном": 5425,
      "издели": 5426,
      "изобрета": 5427,
      "суточ": 5428,
      "суток": 5429,
      "пущи": 5430,
      "пунк": 5431,
      "пуску": 5432,
      "овании": 5433,
      "жил": 5434,
      "серо": 5435,
      "сессии": 5436,
      "бида": 5437,
      "билинг": 5438,
      "бивня": 5439,
      "ходу": 5440,
      "туры": 5441,
      "щими": 5442,
      "мыми": 5443,
      "муж": 5444,
      "муску": 5445,
      "мутации": 5446,
      "мутан": 5447,
      "мушек": 5448,
      "товский": 5449,
      "отрица": 5450,
      "дума": 5451,
      "интро": 5452,
      "инъек": 5453,
      "чик": 5454,
      "чипе": 5455,
      "щей": 5456,
      "щело": 5457,
      "часа": 5458,
      "чают": 5459,
      "чатовский": 5460,
      "подвер": 5461,
      "констан": 5462,
      "концер": 5463,
      "пищу": 5464,
      "работой": 5465,
      "федор": 5466,
      "жей": 5467,
      "без": 5468,
      "бела": 5469,
      "беспо": 5470,
      "беспи": 5471,
      "белый": 5472,
      "учеными": 5473,
      "дыры": 5474,
      "первых": 5475,
      "первое": 5476,
      "перено": 5477,
      "гусени": 5478,
      "филь": 5479,
      "фильных": 5480,
      "расче": 5481,
      "база": 5482,
      "бату": 5483,
      "зили": 5484,
      "зида": 5485,
      "траек": 5486,
      "трафиолетов": 5487,
      "участвовать": 5488,
      "ближ": 5489,
      "керами": 5490,
      "одном": 5491,
      "центре": 5492,
      "центри": 5493,
      "буря": 5494,
      "техники": 5495,
      "меры": 5496,
      "биоресурсов": 5497,
      "полного": 5498,
      "полной": 5499,
      "цефа": 5500,
      "цевти": 5501,
      "церемо": 5502,
      "образных": 5503,
      "образцов": 5504,
      "образцах": 5505,
      "образовы": 5506,
      "гражда": 5507,
      "гравитации": 5508,
      "ального": 5509,
      "лекси": 5510,
      "харанор": 5511,
      "форбида": 5512,
      "исследователям": 5513,
      "смодели": 5514,
      "экспо": 5515,
      "знать": 5516,
      "знание": 5517,
      "своб": 5518,
      "нологии": 5519,
      "шаг": 5520,
      "шаф": 5521,
      "шают": 5522,
      "шающий": 5523,
      "крысах": 5524,
      "переки": 5525,
      "перекры": 5526,
      "перевод": 5527,
      "перечиты": 5528,
      "степи": 5529,
      "активной": 5530,
      "активная": 5531,
      "активными": 5532,
      "исследованиям": 5533,
      "медий": 5534,
      "грузов": 5535,
      "план": 5536,
      "планет": 5537,
      "щаются": 5538,
      "дена": 5539,
      "стоять": 5540,
      "стоянок": 5541,
      "ine": 5542,
      "гранты": 5543,
      "грантами": 5544,
      "поддержка": 5545,
      "жая": 5546,
      "пыли": 5547,
      "пыле": 5548,
      "позд": 5549,
      "позже": 5550,
      "вредных": 5551,
      "тяги": 5552,
      "способы": 5553,
      "способен": 5554,
      "результатов": 5555,
      "центральной": 5556,
      "центральный": 5557,
      "своим": 5558,
      "высокий": 5559,
      "высокую": 5560,
      "трево": 5561,
      "наличи": 5562,
      "страи": 5563,
      "стране": 5564,
      "странах": 5565,
      "лыми": 5566,
      "мышце": 5567,
      "сервис": 5568,
      "развива": 5569,
      "арте": 5570,
      "действуют": 5571,
      "ствия": 5572,
      "курчатовский": 5573,
      "нарушения": 5574,
      "нарушений": 5575,
      "карти": 5576,
      "карты": 5577,
      "эффективными": 5578,
      "химики": 5579,
      "химический": 5580,
      "химическими": 5581,
      "группой": 5582,
      "номинация": 5583,
      "тивные": 5584,
      "экспертами": 5585,
      "показала": 5586,
      "показатель": 5587,
      "получи": 5588,
      "государств": 5589,
      "гово": 5590,
      "особый": 5591,
      "особое": 5592,
      "летне": 5593,
      "восемь": 5594,
      "восстанавли": 5595,
      "возможностью": 5596,
      "кратно": 5597,
      "кратков": 5598,
      "молодой": 5599,
      "важные": 5600,
      "важный": 5601,
      "важная": 5602,
      "важнейших": 5603,
      "анализе": 5604,
      "слые": 5605,
      "кислород": 5606,
      "кислородом": 5607,
      "расскажут": 5608,
      "руководители": 5609,
      "глины": 5610,
      "экосистемы": 5611,
      "становятся": 5612,
      "будущее": 5613,
      "диагно": 5614,
      "матики": 5615,
      "определяют": 5616,
      "этими": 5617,
      "космический": 5618,
      "космическом": 5619,
      "жилищ": 5620,
      "жилища": 5621,
      "разработанный": 5622,
      "стым": 5623,
      "зелены": 5624,
      "температурам": 5625,
      "численности": 5626,
      "различа": 5627,
      "различия": 5628,
      "различий": 5629,
      "органического": 5630,
      "лаборатор": 5631,
      "буддизм": 5632,
      "оказались": 5633,
      "полипов": 5634,
      "полипы": 5635,
      "производить": 5636,
      "взя": 5637,
      "взяли": 5638,
      "структура": 5639,
      "состоянии": 5640,
      "межзвезд": 5641,
      "предложить": 5642,
      "пациенты": 5643,
      "наблюдение": 5644,
      "влиять": 5645,
      "земле": 5646,
      "con": 5647,
      "остаются": 5648,
      "черного": 5649,
      "дальнем": 5650,
      "esmus": 5651,
      "направлен": 5652,
      "существенно": 5653,
      "великого": 5654,
      "эксперименте": 5655,
      "формировании": 5656,
      "ждать": 5657,
      "ждают": 5658,
      "ждаются": 5659,
      "оценивали": 5660,
      "парке": 5661,
      "читателей": 5662,
      "повыси": 5663,
      "положи": 5664,
      "масс": 5665,
      "связаны": 5666,
      "старт": 5667,
      "стартов": 5668,
      "кровь": 5669,
      "реакции": 5670,
      "планируют": 5671,
      "планируется": 5672,
      "большом": 5673,
      "культуре": 5674,
      "культурных": 5675,
      "anno": 5676,
      "стремятся": 5677,
      "программ": 5678,
      "моделью": 5679,
      "блеомици": 5680,
      "длительности": 5681,
      "добиться": 5682,
      "генерального": 5683,
      "ent": 5684,
      "ened": 5685,
      "мером": 5686,
      "значимый": 5687,
      "регионы": 5688,
      "chlor": 5689,
      "rops": 5690,
      "имеющие": 5691,
      "корпу": 5692,
      "кормов": 5693,
      "всероссийского": 5694,
      "жизнь": 5695,
      "потенциа": 5696,
      "общей": 5697,
      "давления": 5698,
      "русский": 5699,
      "контролировать": 5700,
      "представителями": 5701,
      "фиброзом": 5702,
      "исследовательской": 5703,
      "исследовательских": 5704,
      "ракетно": 5705,
      "гаммарус": 5706,
      "генетических": 5707,
      "тверды": 5708,
      "рачкам": 5709,
      "международной": 5710,
      "многолетне": 5711,
      "задачи": 5712,
      "маргари": 5713,
      "содержанием": 5714,
      "участии": 5715,
      "поверхность": 5716,
      "поверхностью": 5717,
      "правило": 5718,
      "правильной": 5719,
      "правильную": 5720,
      "проблему": 5721,
      "самостоя": 5722,
      "клеточной": 5723,
      "известны": 5724,
      "зависимых": 5725,
      "околозем": 5726,
      "медицинской": 5727,
      "производят": 5728,
      "производстве": 5729,
      "график": 5730,
      "экономических": 5731,
      "алексея": 5732,
      "необходимости": 5733,
      "качество": 5734,
      "местили": 5735,
      "электронных": 5736,
      "количестве": 5737,
      "psy": 5738,
      "ионы": 5739,
      "национальной": 5740,
      "сторон": 5741,
      "главного": 5742,
      "главное": 5743,
      "обеспечивают": 5744,
      "обеспечивает": 5745,
      "потере": 5746,
      "принимали": 5747,
      "спир": 5748,
      "монго": 5749,
      "тысяча": 5750,
      "тысячеле": 5751,
      "объекта": 5752,
      "специалистами": 5753,
      "здоровье": 5754,
      "ional": 5755,
      "scened": 5756,
      "ters": 5757,
      "делить": 5758,
      "поведен": 5759,
      "астероида": 5760,
      "гностическую": 5761,
      "нормы": 5762,
      "почему": 5763,
      "почечной": 5764,
      "городской": 5765,
      "современного": 5766,
      "археи": 5767,
      "включает": 5768,
      "противоопухоле": 5769,
      "противостоять": 5770,
      "образованием": 5771,
      "браны": 5772,
      "носителей": 5773,
      "продолжает": 5774,
      "наблюдали": 5775,
      "наблюдалось": 5776,
      "победитель": 5777,
      "эволюционной": 5778,
      "энцефа": 5779,
      "нефти": 5780,
      "бурга": 5781,
      "конкурснои": 5782,
      "гидратных": 5783,
      "подтвержден": 5784,
      "травм": 5785,
      "травме": 5786,
      "травмиру": 5787,
      "традиций": 5788,
      "традиционно": 5789,
      "тяжелая": 5790,
      "диагностике": 5791,
      "диагностическая": 5792,
      "безопасность": 5793,
      "крем": 5794,
      "подавляет": 5795,
      "скоростях": 5796,
      "профессиона": 5797,
      "разруши": 5798,
      "заболеванием": 5799,
      "вопросы": 5800,
      "ответа": 5801,
      "компании": 5802,
      "компань": 5803,
      "энергетики": 5804,
      "психологи": 5805,
      "психологии": 5806,
      "психологических": 5807,
      "принцип": 5808,
      "книга": 5809,
      "статья": 5810,
      "подготовки": 5811,
      "нейтронная": 5812,
      "эпителия": 5813,
      "вселенной": 5814,
      "калмыц": 5815,
      "активируются": 5816,
      "встречи": 5817,
      "проанализировав": 5818,
      "стимуля": 5819,
      "стимуляции": 5820,
      "новому": 5821,
      "ключевую": 5822,
      "успешными": 5823,
      "амино": 5824,
      "природного": 5825,
      "информацию": 5826,
      "однопози": 5827,
      "формули": 5828,
      "долгое": 5829,
      "катализатора": 5830,
      "фундаментальные": 5831,
      "раковых": 5832,
      "раковые": 5833,
      "поиск": 5834,
      "поиска": 5835,
      "медленно": 5836,
      "выполнен": 5837,
      "расшиф": 5838,
      "основатель": 5839,
      "требования": 5840,
      "стратегий": 5841,
      "древние": 5842,
      "древних": 5843,
      "корреспонден": 5844,
      "взаимодействовать": 5845,
      "взаимодействие": 5846,
      "минеральную": 5847,
      "акция": 5848,
      "оказывают": 5849,
      "сетях": 5850,
      "узнают": 5851,
      "южного": 5852,
      "южной": 5853,
      "наследственных": 5854,
      "ницей": 5855,
      "пройти": 5856,
      "сообщество": 5857,
      "видами": 5858,
      "излучение": 5859,
      "мышечных": 5860,
      "участвующих": 5861,
      "участвующие": 5862,
      "организаций": 5863,
      "состояниях": 5864,
      "материаловедения": 5865,
      "фибробласты": 5866,
      "сибирской": 5867,
      "четырех": 5868,
      "epi": 5869,
      "петли": 5870,
      "сферу": 5871,
      "покрытие": 5872,
      "регенеративной": 5873,
      "сосуди": 5874,
      "сосуды": 5875,
      "соответствии": 5876,
      "образует": 5877,
      "образуют": 5878,
      "терапевтических": 5879,
      "существование": 5880,
      "комплексное": 5881,
      "патогенность": 5882,
      "угольном": 5883,
      "реальном": 5884,
      "далеко": 5885,
      "далеких": 5886,
      "секунд": 5887,
      "сезон": 5888,
      "сезоне": 5889,
      "музее": 5890,
      "отношении": 5891,
      "интернет": 5892,
      "инструмента": 5893,
      "березы": 5894,
      "дыхательной": 5895,
      "спонта": 5896,
      "энергобезопасности": 5897,
      "метаболизм": 5898,
      "обнаруженные": 5899,
      "факторы": 5900,
      "материалах": 5901,
      "функциональных": 5902,
      "владимира": 5903,
      "отвечающие": 5904,
      "улиток": 5905,
      "ускоренного": 5906,
      "раскопок": 5907,
      "надеемся": 5908,
      "начиная": 5909,
      "накапливаются": 5910,
      "тирует": 5911,
      "магнито": 5912,
      "вызва": 5913,
      "паттерну": 5914,
      "примесей": 5915,
      "холод": 5916,
      "холода": 5917,
      "классов": 5918,
      "учитывая": 5919,
      "реакций": 5920,
      "адаптироваться": 5921,
      "каждой": 5922,
      "перспективных": 5923,
      "увеличивая": 5924,
      "нефтепродуктов": 5925,
      "испытаний": 5926,
      "окислителя": 5927,
      "окислительных": 5928,
      "грызуны": 5929,
      "стрессового": 5930,
      "раствори": 5931,
      "коротки": 5932,
      "королева": 5933,
      "теория": 5934,
      "массивных": 5935,
      "отсутствии": 5936,
      "объедини": 5937,
      "экологической": 5938,
      "астроцитов": 5939,
      "климат": 5940,
      "финансов": 5941,
      "прогнозировать": 5942,
      "вшиеся": 5943,
      "когнитивных": 5944,
      "волн": 5945,
      "волны": 5946,
      "кубсаты": 5947,
      "кубсатов": 5948,
      "изучать": 5949,
      "предприниматели": 5950,
      "предпринимателями": 5951,
      "взрослые": 5952,
      "популяризации": 5953,
      "хронических": 5954,
      "нагрузку": 5955,
      "стратосферного": 5956,
      "magnat": 5957,
      "орудий": 5958,
      "появи": 5959,
      "поясни": 5960,
      "деревя": 5961,
      "деревьев": 5962,
      "выбраны": 5963,
      "воздуха": 5964,
      "воздухе": 5965,
      "объясняет": 5966,
      "полимерной": 5967,
      "отечественных": 5968,
      "посвящена": 5969,
      "индивидуальных": 5970,
      "sciences": 5971,
      "цифровые": 5972,
      "столкновения": 5973,
      "омматогаммарус": 5974,
      "elli": 5975,
      "the": 5976,
      "throps": 5977,
      "атома": 5978,
      "нюю": 5979,
      "пятниц": 5980,
      "увидели": 5981,
      "чину": 5982,
      "наталия": 5983,
      "наталья": 5984,
      "насыщенных": 5985,
      "потоки": 5986,
      "редактор": 5987,
      "прошла": 5988,
      "профилакти": 5989,
      "чанъэ": 5990,
      "целью": 5991,
      "комментирует": 5992,
      "диапазоне": 5993,
      "диапазонах": 5994,
      "произошло": 5995,
      "последствий": 5996,
      "последствия": 5997,
      "партне": 5998,
      "вспышек": 5999,
      "вспышки": 6000,
      "корабля": 6001,
      "тонштейны": 6002,
      "physical": 6003,
      "кавказских": 6004,
      "микроводоросли": 6005,
      "микроводорослей": 6006,
      "интенсивность": 6007,
      "nasa": 6008,
      "элисте": 6009,
      "разрабатывать": 6010,
      "туристи": 6011,
      "отмечает": 6012,
      "железа": 6013,
      "финалисты": 6014,
      "финалистов": 6015,
      "осложнений": 6016,
      "вредителей": 6017,
      "коллаген": 6018,
      "методика": 6019,
      "диабета": 6020,
      "благоприят": 6021,
      "последовательностей": 6022,
      "водоросли": 6023,
      "жизнеспособность": 6024,
      "инфекций": 6025,
      "херсонес": 6026,
      "херсонеса": 6027,
      "библиотека": 6028,
      "national": 6029,
      "опросни": 6030,
      "рентгенов": 6031,
      "сценари": 6032,
      "зарубеж": 6033,
      "зарубежных": 6034,
      "месяца": 6035,
      "промышленности": 6036,
      "предусмо": 6037,
      "предусматри": 6038,
      "изготовления": 6039,
      "секвени": 6040,
      "относительно": 6041,
      "инфраструктуры": 6042,
      "повторя": 6043,
      "повлиять": 6044,
      "планеты": 6045,
      "другого": 6046,
      "сырья": 6047,
      "интеграции": 6048,
      "амидазы": 6049,
      "адаптацией": 6050,
      "фармацевти": 6051,
      "фосфата": 6052,
      "фосфатов": 6053,
      "персонализированного": 6054,
      "литературе": 6055,
      "bothrops": 6056,
      "брнауки": 6057,
      "внимание": 6058,
      "радченко": 6059,
      "нижний": 6060,
      "показывают": 6061,
      "борисов": 6062,
      "приборов": 6063,
      "привело": 6064,
      "распределение": 6065,
      "баканов": 6066,
      "баланс": 6067,
      "обладали": 6068,
      "космонавтов": 6069,
      "диалог": 6070,
      "численность": 6071,
      "оставалось": 6072,
      "последующего": 6073,
      "древнегре": 6074,
      "династии": 6075,
      "металлоорганических": 6076,
      "костенки": 6077,
      "урбанизации": 6078,
      "компьютерной": 6079,
      "инициативы": 6080,
      "альтернати": 6081,
      "drobii": 6082,
      "мгнц": 6083,
      "ркк": 6084,
      "уверен": 6085,
      "укрепление": 6086,
      "навыков": 6087,
      "лиственницы": 6088,
      "поляр": 6089,
      "поколений": 6090,
      "побывали": 6091,
      "негативно": 6092,
      "бородавча": 6093,
      "выступят": 6094,
      "папоротников": 6095,
      "изображения": 6096,
      "мультимедий": 6097,
      "феофорбида": 6098,
      "предприятий": 6099,
      "рассматривать": 6100,
      "ближай": 6101,
      "бронзового": 6102,
      "фотодинамической": 6103,
      "сталкиваются": 6104,
      "диониса": 6105,
      "берестяная": 6106,
      "германия": 6107,
      "психиатрии": 6108,
      "сельскохозяйственных": 6109,
      "зеркальных": 6110,
      "advan": 6111,
      "medic": 6112,
      "иерархи": 6113,
      "огром": 6114,
      "ультрафиолетов": 6115,
      "фанта": 6116,
      "эрмита": 6117,
      "ракообразных": 6118,
      "кооперации": 6119,
      "николай": 6120,
      "редукта": 6121,
      "минобрнауки": 6122,
      "лососевых": 6123,
      "обсерватори": 6124,
      "дизайн": 6125,
      "вавилова": 6126,
      "сириус": 6127,
      "нескольких": 6128,
      "депрессии": 6129,
      "фокуса": 6130,
      "отталки": 6131,
      "антропо": 6132,
      "люминесцен": 6133,
      "фикации": 6134,
      "повислой": 6135,
      "возрасте": 6136,
      "возобновля": 6137,
      "international": 6138,
      "гетероци": 6139,
      "получавших": 6140,
      "рассказала": 6141,
      "фанагории": 6142,
      "моноэтиленглико": 6143,
      "chemi": 6144,
      "чувилин": 6145,
      "спикеры": 6146,
      "гидробиид": 6147,
      "сантиметров": 6148,
      "степняки": 6149,
      "принципиально": 6150,
      "сверхплотного": 6151,
      "газопроницаемости": 6152,
      "компьютером": 6153,
      "здравоохранения": 6154,
      "педагогического": 6155,
      "прозрачности": 6156,
      "тиоредоксинредукта": 6157,
      "evolut": 6158,
      "hydrobii": 6159,
      "вдох": 6160,
      "екатери": 6161,
      "креатив": 6162,
      "ухуд": 6163,
      "энанти": 6164,
      "поясняет": 6165,
      "посттравматического": 6166,
      "ландшаф": 6167,
      "просветитель": 6168,
      "департа": 6169,
      "ботроп": 6170,
      "разобраться": 6171,
      "достовер": 6172,
      "сатурна": 6173,
      "приводят": 6174,
      "пунктов": 6175,
      "беспило": 6176,
      "кратковремен": 6177,
      "потенциала": 6178,
      "scenedesmus": 6179,
      "энцефало": 6180,
      "корреспондент": 6181,
      "magnatum": 6182,
      "бородавчатого": 6183,
      "evolution": 6184,
      "hydrobiidae": 6185,
      "ck": 6186,
      "cat": 6187,
      "fa": 6188,
      "fic": 6189,
      "fus": 6190,
      "ge": 6191,
      "it": 6192,
      "ifor": 6193,
      "ly": 6194,
      "lus": 6195,
      "log": 6196,
      "mic": 6197,
      "mis": 6198,
      "ment": 6199,
      "nanno": 6200,
      "oo": 6201,
      "op": 6202,
      "ov": 6203,
      "pr": 6204,
      "pal": 6205,
      "pli": 6206,
      "qr": 6207,
      "ri": 6208,
      "ry": 6209,
      "rep": 6210,
      "sy": 6211,
      "sor": 6212,
      "sur": 6213,
      "sis": 6214,
      "tien": 6215,
      "un": 6216,
      "ver": 6217,
      "vus": 6218,
      "ад": 6219,
      "аро": 6220,
      "ала": 6221,
      "ага": 6222,
      "алю": 6223,
      "агре": 6224,
      "аспек": 6225,
      "абра": 6226,
      "азии": 6227,
      "бав": 6228,
      "бхф": 6229,
      "вв": 6230,
      "вя": 6231,
      "вен": 6232,
      "вные": 6233,
      "впослед": 6234,
      "вшая": 6235,
      "входят": 6236,
      "входя": 6237,
      "включения": 6238,
      "вводили": 6239,
      "гэ": 6240,
      "дно": 6241,
      "дки": 6242,
      "дова": 6243,
      "дены": 6244,
      "дят": 6245,
      "дню": 6246,
      "дёт": 6247,
      "евых": 6248,
      "елена": 6249,
      "жные": 6250,
      "зв": 6251,
      "зри": 6252,
      "зис": 6253,
      "зного": 6254,
      "иц": 6255,
      "иные": 6256,
      "иной": 6257,
      "игу": 6258,
      "иван": 6259,
      "илья": 6260,
      "итых": 6261,
      "ибхф": 6262,
      "йц": 6263,
      "йств": 6264,
      "к2": 6265,
      "кло": 6266,
      "кво": 6267,
      "кты": 6268,
      "лле": 6269,
      "мт": 6270,
      "мся": 6271,
      "мского": 6272,
      "мпи": 6273,
      "млад": 6274,
      "мбраны": 6275,
      "нка": 6276,
      "нение": 6277,
      "нное": 6278,
      "нением": 6279,
      "она": 6280,
      "опо": 6281,
      "оци": 6282,
      "осо": 6283,
      "охо": 6284,
      "оча": 6285,
      "остро": 6286,
      "останов": 6287,
      "оседа": 6288,
      "отар": 6289,
      "пения": 6290,
      "плет": 6291,
      "рки": 6292,
      "рной": 6293,
      "ргу": 6294,
      "ср": 6295,
      "сю": 6296,
      "сного": 6297,
      "сход": 6298,
      "сбора": 6299,
      "сбор": 6300,
      "справи": 6301,
      "свыше": 6302,
      "сбер": 6303,
      "сновод": 6304,
      "тбо": 6305,
      "тви": 6306,
      "тности": 6307,
      "тную": 6308,
      "тным": 6309,
      "тники": 6310,
      "тк2": 6311,
      "ум": 6312,
      "усти": 6313,
      "уста": 6314,
      "уку": 6315,
      "уточ": 6316,
      "уваж": 6317,
      "указыва": 6318,
      "утрен": 6319,
      "усовершен": 6320,
      "утром": 6321,
      "устанавли": 6322,
      "углуб": 6323,
      "улавли": 6324,
      "фран": 6325,
      "хх": 6326,
      "хво": 6327,
      "христи": 6328,
      "чени": 6329,
      "чти": 6330,
      "чений": 6331,
      "чника": 6332,
      "шер": 6333,
      "шор": 6334,
      "шую": 6335,
      "шкала": 6336,
      "шкин": 6337,
      "щё": 6338,
      "ъе": 6339,
      "ыду": 6340,
      "эмо": 6341,
      "эля": 6342,
      "эсте": 6343,
      "этно": 6344,
      "экипа": 6345,
      "юмо": 6346,
      "ющему": 6347,
      "яда": 6348,
      "яку": 6349,
      "ядро": 6350,
      "ядра": 6351,
      "ядах": 6352,
      "япон": 6353,
      "яйц": 6354,
      "ём": 6355,
      "овых": 6356,
      "енос": 6357,
      "енное": 6358,
      "ранов": 6359,
      "рацио": 6360,
      "рацион": 6361,
      "ноц": 6362,
      "ноги": 6363,
      "коре": 6364,
      "комет": 6365,
      "нане": 6366,
      "нама": 6367,
      "нации": 6368,
      "наимен": 6369,
      "нальной": 6370,
      "народа": 6371,
      "насты": 6372,
      "нашем": 6373,
      "нагля": 6374,
      "наноси": 6375,
      "нашего": 6376,
      "наоборо": 6377,
      "росте": 6378,
      "рокин": 6379,
      "нины": 6380,
      "нией": 6381,
      "нитет": 6382,
      "лии": 6383,
      "лист": 6384,
      "лино": 6385,
      "лизи": 6386,
      "лице": 6387,
      "лица": 6388,
      "лирования": 6389,
      "ныи": 6390,
      "пори": 6391,
      "пооб": 6392,
      "пола": 6393,
      "поме": 6394,
      "поги": 6395,
      "подо": 6396,
      "пожи": 6397,
      "посмо": 6398,
      "посте": 6399,
      "погру": 6400,
      "постоя": 6401,
      "попы": 6402,
      "постав": 6403,
      "покси": 6404,
      "появ": 6405,
      "послу": 6406,
      "погре": 6407,
      "пополни": 6408,
      "появления": 6409,
      "помут": 6410,
      "реже": 6411,
      "ректор": 6412,
      "речь": 6413,
      "тес": 6414,
      "темо": 6415,
      "текту": 6416,
      "гом": 6417,
      "голь": 6418,
      "гости": 6419,
      "годом": 6420,
      "льского": 6421,
      "льских": 6422,
      "лери": 6423,
      "лесо": 6424,
      "летом": 6425,
      "лечь": 6426,
      "торе": 6427,
      "томо": 6428,
      "тологии": 6429,
      "тоорганических": 6430,
      "тав": 6431,
      "тать": 6432,
      "таков": 6433,
      "кистана": 6434,
      "каре": 6435,
      "кальной": 6436,
      "мида": 6437,
      "мину": 6438,
      "мифи": 6439,
      "миния": 6440,
      "мигра": 6441,
      "типе": 6442,
      "тизи": 6443,
      "тились": 6444,
      "тическую": 6445,
      "ломок": 6446,
      "рил": 6447,
      "риванием": 6448,
      "обши": 6449,
      "обзо": 6450,
      "облег": 6451,
      "общения": 6452,
      "общий": 6453,
      "обработали": 6454,
      "обломок": 6455,
      "моли": 6456,
      "море": 6457,
      "моти": 6458,
      "момента": 6459,
      "морей": 6460,
      "монасты": 6461,
      "дил": 6462,
      "диссо": 6463,
      "ваи": 6464,
      "вало": 6465,
      "валась": 6466,
      "валери": 6467,
      "воен": 6468,
      "воде": 6469,
      "вось": 6470,
      "воска": 6471,
      "возили": 6472,
      "дания": 6473,
      "руя": 6474,
      "рума": 6475,
      "рующие": 6476,
      "рующей": 6477,
      "циви": 6478,
      "чера": 6479,
      "честь": 6480,
      "чебной": 6481,
      "зале": 6482,
      "забе": 6483,
      "закры": 6484,
      "задей": 6485,
      "запис": 6486,
      "замед": 6487,
      "заключи": 6488,
      "засахар": 6489,
      "сиков": 6490,
      "сильные": 6491,
      "лаб": 6492,
      "ланда": 6493,
      "нец": 6494,
      "неде": 6495,
      "недо": 6496,
      "неба": 6497,
      "неделе": 6498,
      "мере": 6499,
      "метром": 6500,
      "местах": 6501,
      "мембраны": 6502,
      "прото": 6503,
      "прока": 6504,
      "проника": 6505,
      "продви": 6506,
      "проявляется": 6507,
      "проходит": 6508,
      "простые": 6509,
      "прошел": 6510,
      "прогностическую": 6511,
      "мара": 6512,
      "мата": 6513,
      "мага": 6514,
      "макро": 6515,
      "сой": 6516,
      "сот": 6517,
      "соф": 6518,
      "соли": 6519,
      "сочи": 6520,
      "соавтор": 6521,
      "сосре": 6522,
      "сорев": 6523,
      "содействия": 6524,
      "сорокин": 6525,
      "дев": 6526,
      "дере": 6527,
      "дегра": 6528,
      "деление": 6529,
      "декса": 6530,
      "делова": 6531,
      "дерева": 6532,
      "гид": 6533,
      "гио": 6534,
      "гина": 6535,
      "гипокси": 6536,
      "бок": 6537,
      "боре": 6538,
      "искать": 6539,
      "разре": 6540,
      "разным": 6541,
      "разбор": 6542,
      "разита": 6543,
      "развле": 6544,
      "размером": 6545,
      "вич": 6546,
      "вый": 6547,
      "выве": 6548,
      "вызов": 6549,
      "выдержи": 6550,
      "вырасти": 6551,
      "вывед": 6552,
      "старой": 6553,
      "статей": 6554,
      "старей": 6555,
      "станут": 6556,
      "вере": 6557,
      "ведения": 6558,
      "вечная": 6559,
      "доз": 6560,
      "доля": 6561,
      "долю": 6562,
      "допол": 6563,
      "донных": 6564,
      "догли": 6565,
      "достави": 6566,
      "доклады": 6567,
      "преж": 6568,
      "препода": 6569,
      "преобладали": 6570,
      "пресновод": 6571,
      "гации": 6572,
      "гастро": 6573,
      "галим": 6574,
      "пал": 6575,
      "пан": 6576,
      "пах": 6577,
      "паразита": 6578,
      "сают": 6579,
      "печени": 6580,
      "куда": 6581,
      "куби": 6582,
      "менделе": 6583,
      "приз": 6584,
      "приспособ": 6585,
      "присво": 6586,
      "приходи": 6587,
      "применя": 6588,
      "приводя": 6589,
      "примут": 6590,
      "новым": 6591,
      "тым": 6592,
      "тывание": 6593,
      "тываемо": 6594,
      "ему": 6595,
      "емую": 6596,
      "емыми": 6597,
      "тельностью": 6598,
      "изба": 6599,
      "изото": 6600,
      "суется": 6601,
      "сумма": 6602,
      "судоро": 6603,
      "пусков": 6604,
      "ований": 6605,
      "жир": 6606,
      "живание": 6607,
      "сера": 6608,
      "семи": 6609,
      "сектор": 6610,
      "бина": 6611,
      "холе": 6612,
      "ходов": 6613,
      "хотели": 6614,
      "ково": 6615,
      "тур": 6616,
      "ровок": 6617,
      "роволь": 6618,
      "щим": 6619,
      "фокаль": 6620,
      "ранние": 6621,
      "отправ": 6622,
      "отбора": 6623,
      "отправи": 6624,
      "отлавли": 6625,
      "логического": 6626,
      "дува": 6627,
      "дуби": 6628,
      "дуска": 6629,
      "инфар": 6630,
      "чивается": 6631,
      "чистых": 6632,
      "чатки": 6633,
      "подда": 6634,
      "подсемейство": 6635,
      "конкури": 6636,
      "концентри": 6637,
      "пить": 6638,
      "научное": 6639,
      "научными": 6640,
      "нуля": 6641,
      "нуться": 6642,
      "работке": 6643,
      "рабочей": 6644,
      "англи": 6645,
      "ансам": 6646,
      "антар": 6647,
      "феев": 6648,
      "жест": 6649,
      "желу": 6650,
      "верность": 6651,
      "авторами": 6652,
      "люб": 6653,
      "люд": 6654,
      "которыми": 6655,
      "ловых": 6656,
      "предпо": 6657,
      "предков": 6658,
      "преднамер": 6659,
      "предсказыва": 6660,
      "предыду": 6661,
      "рована": 6662,
      "ровала": 6663,
      "ровались": 6664,
      "первом": 6665,
      "перкарбо": 6666,
      "торже": 6667,
      "тормоз": 6668,
      "фито": 6669,
      "филов": 6670,
      "рассчита": 6671,
      "располага": 6672,
      "рассчиты": 6673,
      "распада": 6674,
      "базы": 6675,
      "базу": 6676,
      "бакова": 6677,
      "базов": 6678,
      "башма": 6679,
      "ряда": 6680,
      "ряде": 6681,
      "рязе": 6682,
      "рябина": 6683,
      "шишкин": 6684,
      "екле": 6685,
      "ственности": 6686,
      "ственную": 6687,
      "ственном": 6688,
      "ленов": 6689,
      "ленная": 6690,
      "ленную": 6691,
      "ленным": 6692,
      "ценных": 6693,
      "центром": 6694,
      "бук": 6695,
      "нейтра": 6696,
      "неймар": 6697,
      "нияу": 6698,
      "биомедицины": 6699,
      "биоплен": 6700,
      "биоэкономики": 6701,
      "биомаркеров": 6702,
      "скаемого": 6703,
      "опусты": 6704,
      "цева": 6705,
      "целом": 6706,
      "целый": 6707,
      "образе": 6708,
      "образца": 6709,
      "няли": 6710,
      "альный": 6711,
      "воздействи": 6712,
      "воздействием": 6713,
      "возводили": 6714,
      "лектории": 6715,
      "трост": 6716,
      "тросов": 6717,
      "хатцев": 6718,
      "хасиков": 6719,
      "осна": 6720,
      "форме": 6721,
      "сможет": 6722,
      "шевского": 6723,
      "проекте": 6724,
      "проектом": 6725,
      "экг": 6726,
      "экзем": 6727,
      "органах": 6728,
      "стволовых": 6729,
      "знаний": 6730,
      "зой": 6731,
      "зон": 6732,
      "зоне": 6733,
      "термен": 6734,
      "термальных": 6735,
      "российскими": 6736,
      "низким": 6737,
      "точнее": 6738,
      "точностью": 6739,
      "шат": 6740,
      "шали": 6741,
      "шающие": 6742,
      "шахма": 6743,
      "технологию": 6744,
      "технологиях": 6745,
      "технологическое": 6746,
      "лунной": 6747,
      "циони": 6748,
      "циолков": 6749,
      "крысы": 6750,
      "переста": 6751,
      "переключения": 6752,
      "перевяз": 6753,
      "ich": 6754,
      "активным": 6755,
      "един": 6756,
      "единиц": 6757,
      "медитация": 6758,
      "грунта": 6759,
      "сквоз": 6760,
      "скрябина": 6761,
      "хина": 6762,
      "ing": 6763,
      "другу": 6764,
      "жали": 6765,
      "вреда": 6766,
      "ativ": 6767,
      "гея": 6768,
      "геле": 6769,
      "гелей": 6770,
      "геоме": 6771,
      "способных": 6772,
      "способный": 6773,
      "способностей": 6774,
      "модера": 6775,
      "моделей": 6776,
      "rum": 6777,
      "сников": 6778,
      "снижа": 6779,
      "снижения": 6780,
      "снижение": 6781,
      "минздра": 6782,
      "высокое": 6783,
      "ступе": 6784,
      "студии": 6785,
      "orts": 6786,
      "наличия": 6787,
      "ствующими": 6788,
      "страдает": 6789,
      "никах": 6790,
      "глаза": 6791,
      "создана": 6792,
      "созданием": 6793,
      "созданию": 6794,
      "университетах": 6795,
      "плодо": 6796,
      "плохо": 6797,
      "вузе": 6798,
      "ждению": 6799,
      "ждении": 6800,
      "ждением": 6801,
      "мышцах": 6802,
      "серия": 6803,
      "сергея": 6804,
      "срез": 6805,
      "среду": 6806,
      "биологически": 6807,
      "развиваются": 6808,
      "развивается": 6809,
      "развиваться": 6810,
      "арти": 6811,
      "артери": 6812,
      "паралле": 6813,
      "нарушение": 6814,
      "нарушать": 6815,
      "нарушением": 6816,
      "нарушается": 6817,
      "карта": 6818,
      "карка": 6819,
      "карье": 6820,
      "экспресс": 6821,
      "больных": 6822,
      "эффективны": 6823,
      "эффективной": 6824,
      "эффективным": 6825,
      "эффективному": 6826,
      "системного": 6827,
      "физическими": 6828,
      "труб": 6829,
      "трудо": 6830,
      "футбо": 6831,
      "тивного": 6832,
      "основными": 6833,
      "эксперти": 6834,
      "емому": 6835,
      "тренных": 6836,
      "показателей": 6837,
      "долгов": 6838,
      "белком": 6839,
      "белкам": 6840,
      "полученных": 6841,
      "организова": 6842,
      "организму": 6843,
      "молекулу": 6844,
      "открытый": 6845,
      "ловили": 6846,
      "особо": 6847,
      "помощь": 6848,
      "воспринима": 6849,
      "воспроизводство": 6850,
      "возможных": 6851,
      "возможной": 6852,
      "космос": 6853,
      "космологи": 6854,
      "микроба": 6855,
      "микробио": 6856,
      "микрогли": 6857,
      "микропласти": 6858,
      "микроскопи": 6859,
      "важным": 6860,
      "кислоту": 6861,
      "тенный": 6862,
      "глиев": 6863,
      "экосистем": 6864,
      "участках": 6865,
      "процессами": 6866,
      "позволяющий": 6867,
      "ers": 6868,
      "ert": 6869,
      "определенной": 6870,
      "будда": 6871,
      "разработанного": 6872,
      "внеклеточных": 6873,
      "земе": 6874,
      "зелен": 6875,
      "спускаемого": 6876,
      "числа": 6877,
      "численные": 6878,
      "различными": 6879,
      "буддистов": 6880,
      "оказать": 6881,
      "фау": 6882,
      "фактор": 6883,
      "факуль": 6884,
      "птиц": 6885,
      "полигон": 6886,
      "политики": 6887,
      "полиненасы": 6888,
      "материальной": 6889,
      "состояний": 6890,
      "состоящие": 6891,
      "состоящий": 6892,
      "животного": 6893,
      "провел": 6894,
      "нену": 6895,
      "межполов": 6896,
      "брожения": 6897,
      "влияющих": 6898,
      "влиянию": 6899,
      "землю": 6900,
      "научному": 6901,
      "остальных": 6902,
      "остальные": 6903,
      "черно": 6904,
      "черной": 6905,
      "нируют": 6906,
      "направленного": 6907,
      "существова": 6908,
      "существовать": 6909,
      "частично": 6910,
      "экспериментов": 6911,
      "уровни": 6912,
      "уровне": 6913,
      "формируют": 6914,
      "формированию": 6915,
      "равно": 6916,
      "равнины": 6917,
      "колоний": 6918,
      "читали": 6919,
      "повышает": 6920,
      "als": 6921,
      "решению": 6922,
      "массой": 6923,
      "связанные": 6924,
      "связанный": 6925,
      "светом": 6926,
      "радика": 6927,
      "минания": 6928,
      "антиокси": 6929,
      "кровенос": 6930,
      "реаген": 6931,
      "сахалина": 6932,
      "культуру": 6933,
      "дальнейших": 6934,
      "дальнейшей": 6935,
      "дальнейшие": 6936,
      "дальнейшее": 6937,
      "стреми": 6938,
      "программе": 6939,
      "федеральном": 6940,
      "энергией": 6941,
      "длин": 6942,
      "длить": 6943,
      "длину": 6944,
      "длительной": 6945,
      "длительный": 6946,
      "длительного": 6947,
      "доброволь": 6948,
      "представления": 6949,
      "представление": 6950,
      "представлены": 6951,
      "представляется": 6952,
      "практики": 6953,
      "практику": 6954,
      "практические": 6955,
      "практическое": 6956,
      "позволили": 6957,
      "генерации": 6958,
      "синтезе": 6959,
      "человеку": 6960,
      "буддийские": 6961,
      "eng": 6962,
      "enko": 6963,
      "значимых": 6964,
      "значимые": 6965,
      "историко": 6966,
      "историей": 6967,
      "особенность": 6968,
      "регионах": 6969,
      "выяснилось": 6970,
      "повреждении": 6971,
      "всероссий": 6972,
      "кругло": 6973,
      "удаленных": 6974,
      "обществе": 6975,
      "давно": 6976,
      "руссе": 6977,
      "представить": 6978,
      "фиброзу": 6979,
      "исследовательская": 6980,
      "исследовательскую": 6981,
      "шему": 6982,
      "пространство": 6983,
      "десять": 6984,
      "патогенов": 6985,
      "служит": 6986,
      "легко": 6987,
      "легкие": 6988,
      "формате": 6989,
      "ционная": 6990,
      "международными": 6991,
      "обеспечения": 6992,
      "грей": 6993,
      "многокомпонен": 6994,
      "многофункциона": 6995,
      "многослой": 6996,
      "языке": 6997,
      "языком": 6998,
      "языках": 6999,
      "марта": 7000,
      "марке": 7001,
      "содержат": 7002,
      "содержании": 7003,
      "щихся": 7004,
      "правительство": 7005,
      "самом": 7006,
      "конгрессе": 7007,
      "спектак": 7008,
      "известные": 7009,
      "понятий": 7010,
      "динав": 7011,
      "спортив": 7012,
      "врача": 7013,
      "продуктив": 7014,
      "продукции": 7015,
      "концентрациях": 7016,
      "белозер": 7017,
      "графия": 7018,
      "экономика": 7019,
      "экономику": 7020,
      "вариантом": 7021,
      "площадка": 7022,
      "площадку": 7023,
      "шенко": 7024,
      "электронов": 7025,
      "электромагни": 7026,
      "количеству": 7027,
      "популяций": 7028,
      "популяциях": 7029,
      "psoid": 7030,
      "иоффе": 7031,
      "носители": 7032,
      "поража": 7033,
      "поражения": 7034,
      "каждом": 7035,
      "ломоносов": 7036,
      "стороне": 7037,
      "генах": 7038,
      "главная": 7039,
      "веществами": 7040,
      "stem": 7041,
      "stry": 7042,
      "обитает": 7043,
      "обитающие": 7044,
      "верхних": 7045,
      "соединениями": 7046,
      "найдены": 7047,
      "защиту": 7048,
      "защитных": 7049,
      "защитные": 7050,
      "ственному": 7051,
      "объектах": 7052,
      "iology": 7053,
      "редкого": 7054,
      "редкий": 7055,
      "реалисти": 7056,
      "солют": 7057,
      "достичь": 7058,
      "изучен": 7059,
      "считают": 7060,
      "считаются": 7061,
      "считалось": 7062,
      "норме": 7063,
      "городских": 7064,
      "искусства": 7065,
      "искусстве": 7066,
      "искусственных": 7067,
      "искусственно": 7068,
      "искусственный": 7069,
      "современные": 7070,
      "сложно": 7071,
      "взглянуть": 7072,
      "ресурсы": 7073,
      "анато": 7074,
      "аналогов": 7075,
      "увеличению": 7076,
      "увеличением": 7077,
      "населения": 7078,
      "населенных": 7079,
      "находка": 7080,
      "математически": 7081,
      "математического": 7082,
      "математическую": 7083,
      "детского": 7084,
      "питательной": 7085,
      "широты": 7086,
      "широтах": 7087,
      "среднем": 7088,
      "президентом": 7089,
      "брали": 7090,
      "власти": 7091,
      "порта": 7092,
      "телем": 7093,
      "продолжа": 7094,
      "гидрогеля": 7095,
      "иммунной": 7096,
      "иммунитет": 7097,
      "углеводы": 7098,
      "углеводов": 7099,
      "нефро": 7100,
      "составляет": 7101,
      "распространя": 7102,
      "бурская": 7103,
      "блок": 7104,
      "блоком": 7105,
      "ссср": 7106,
      "почтенный": 7107,
      "обратной": 7108,
      "северном": 7109,
      "отдельных": 7110,
      "отдельная": 7111,
      "подтвердить": 7112,
      "травмой": 7113,
      "тяжелые": 7114,
      "тяжелого": 7115,
      "тяжелыми": 7116,
      "свойствам": 7117,
      "предложено": 7118,
      "предложенных": 7119,
      "вероятности": 7120,
      "рованием": 7121,
      "товая": 7122,
      "подавляют": 7123,
      "рубца": 7124,
      "рубцы": 7125,
      "разрушения": 7126,
      "получали": 7127,
      "получать": 7128,
      "источник": 7129,
      "источники": 7130,
      "металлами": 7131,
      "звездную": 7132,
      "полезные": 7133,
      "полезную": 7134,
      "синтезированные": 7135,
      "ясно": 7136,
      "наносят": 7137,
      "четырё": 7138,
      "принятия": 7139,
      "подобного": 7140,
      "компак": 7141,
      "степенью": 7142,
      "высокотехнологи": 7143,
      "энергетического": 7144,
      "спутниках": 7145,
      "liqu": 7146,
      "критери": 7147,
      "кристал": 7148,
      "слабо": 7149,
      "токсинов": 7150,
      "токсичные": 7151,
      "соглашения": 7152,
      "согласуется": 7153,
      "подготовка": 7154,
      "подготовке": 7155,
      "подготовили": 7156,
      "эпителии": 7157,
      "эпителиальных": 7158,
      "эпителиальные": 7159,
      "эпителиоци": 7160,
      "вселенную": 7161,
      "активировать": 7162,
      "активируют": 7163,
      "академик": 7164,
      "сверхновой": 7165,
      "проанализировать": 7166,
      "сердечно": 7167,
      "ключевые": 7168,
      "культурном": 7169,
      "сохранения": 7170,
      "сохранность": 7171,
      "археологический": 7172,
      "сфера": 7173,
      "название": 7174,
      "посвященных": 7175,
      "тексту": 7176,
      "циации": 7177,
      "хозяйства": 7178,
      "отражения": 7179,
      "однород": 7180,
      "компонента": 7181,
      "компоненты": 7182,
      "свойство": 7183,
      "должно": 7184,
      "долголетия": 7185,
      "клинической": 7186,
      "региональные": 7187,
      "глубинных": 7188,
      "катализатор": 7189,
      "квантовые": 7190,
      "фундаментальной": 7191,
      "legr": 7192,
      "костя": 7193,
      "лечены": 7194,
      "волок": 7195,
      "газовые": 7196,
      "расширя": 7197,
      "расширения": 7198,
      "расширить": 7199,
      "бархатцев": 7200,
      "основанного": 7201,
      "республика": 7202,
      "стратегии": 7203,
      "стратегию": 7204,
      "лабораторий": 7205,
      "древнюю": 7206,
      "корректи": 7207,
      "коррекции": 7208,
      "корректировать": 7209,
      "взаимодействуют": 7210,
      "минерального": 7211,
      "минеральных": 7212,
      "минеральной": 7213,
      "актуальных": 7214,
      "окис": 7215,
      "оказываются": 7216,
      "уменьшению": 7217,
      "южно": 7218,
      "южном": 7219,
      "растительность": 7220,
      "позицию": 7221,
      "рефлектор": 7222,
      "пройдёт": 7223,
      "высшей": 7224,
      "высшая": 7225,
      "мышечная": 7226,
      "пищевых": 7227,
      "первым": 7228,
      "стоянке": 7229,
      "организация": 7230,
      "коралла": 7231,
      "фрагмента": 7232,
      "инженерном": 7233,
      "красного": 7234,
      "красный": 7235,
      "опытом": 7236,
      "петрова": 7237,
      "элементоорганических": 7238,
      "построения": 7239,
      "построили": 7240,
      "обучение": 7241,
      "обучению": 7242,
      "морских": 7243,
      "силика": 7244,
      "малоактивного": 7245,
      "сократить": 7246,
      "детального": 7247,
      "петербурга": 7248,
      "признаков": 7249,
      "измеряли": 7250,
      "предположить": 7251,
      "центров": 7252,
      "специально": 7253,
      "образуются": 7254,
      "терапевтического": 7255,
      "терапевтической": 7256,
      "существования": 7257,
      "водородных": 7258,
      "патогенных": 7259,
      "молекулярно": 7260,
      "глюкозида": 7261,
      "telegr": 7262,
      "вмеша": 7263,
      "угольных": 7264,
      "реальности": 7265,
      "канал": 7266,
      "канале": 7267,
      "симво": 7268,
      "симптом": 7269,
      "союза": 7270,
      "выделенных": 7271,
      "выделяется": 7272,
      "вызывают": 7273,
      "вызывающие": 7274,
      "относя": 7275,
      "фицированных": 7276,
      "ющимися": 7277,
      "спонтан": 7278,
      "университетского": 7279,
      "третьего": 7280,
      "энергозатраты": 7281,
      "обнаруженных": 7282,
      "интеллект": 7283,
      "интеллекту": 7284,
      "крупных": 7285,
      "сравнительный": 7286,
      "владимиром": 7287,
      "отвечают": 7288,
      "ускорение": 7289,
      "ускоренное": 7290,
      "юрия": 7291,
      "накапливать": 7292,
      "накапливают": 7293,
      "ребен": 7294,
      "тимирязе": 7295,
      "запущен": 7296,
      "запуске": 7297,
      "магнитные": 7298,
      "выпускников": 7299,
      "выпускники": 7300,
      "персона": 7301,
      "комбинация": 7302,
      "грантовой": 7303,
      "проверили": 7304,
      "антимикробную": 7305,
      "реакция": 7306,
      "большинства": 7307,
      "контролируют": 7308,
      "описано": 7309,
      "описаны": 7310,
      "всему": 7311,
      "адаптирован": 7312,
      "scienti": 7313,
      "солнечных": 7314,
      "нефтегазов": 7315,
      "испытания": 7316,
      "испытательную": 7317,
      "разрушаются": 7318,
      "кодирует": 7319,
      "etics": 7320,
      "введения": 7321,
      "ежеднев": 7322,
      "олимпи": 7323,
      "украшения": 7324,
      "украшение": 7325,
      "хуже": 7326,
      "чтение": 7327,
      "стресс": 7328,
      "корот": 7329,
      "ростовский": 7330,
      "теорию": 7331,
      "камеры": 7332,
      "месторождения": 7333,
      "инновационных": 7334,
      "поддерживают": 7335,
      "пилот": 7336,
      "работку": 7337,
      "строительных": 7338,
      "строительства": 7339,
      "требуют": 7340,
      "требуемую": 7341,
      "объединяет": 7342,
      "экология": 7343,
      "добавки": 7344,
      "проблемам": 7345,
      "нормальной": 7346,
      "нормальная": 7347,
      "телескопы": 7348,
      "иммунотерапия": 7349,
      "миокарде": 7350,
      "разнообразия": 7351,
      "разнообразием": 7352,
      "актуальна": 7353,
      "госкорпорация": 7354,
      "revi": 7355,
      "итоги": 7356,
      "итогам": 7357,
      "сделали": 7358,
      "ноябре": 7359,
      "понимания": 7360,
      "потребление": 7361,
      "гормо": 7362,
      "мощных": 7363,
      "мощным": 7364,
      "волго": 7365,
      "пептидогли": 7366,
      "живущих": 7367,
      "подчерк": 7368,
      "предприниматель": 7369,
      "расстройств": 7370,
      "близко": 7371,
      "связывают": 7372,
      "психических": 7373,
      "масштаби": 7374,
      "популяризация": 7375,
      "атомной": 7376,
      "конечных": 7377,
      "поглощения": 7378,
      "своего": 7379,
      "синдроме": 7380,
      "внедрения": 7381,
      "внедрение": 7382,
      "внешних": 7383,
      "штамм": 7384,
      "отечественной": 7385,
      "агентность": 7386,
      "агентности": 7387,
      "агентностью": 7388,
      "шелкопряд": 7389,
      "атомар": 7390,
      "играют": 7391,
      "озере": 7392,
      "слюны": 7393,
      "стенках": 7394,
      "насыщен": 7395,
      "потоков": 7396,
      "редак": 7397,
      "редакти": 7398,
      "разнесенными": 7399,
      "дополнительно": 7400,
      "дополнительных": 7401,
      "присутствует": 7402,
      "следуя": 7403,
      "исследуемой": 7404,
      "геномы": 7405,
      "зимний": 7406,
      "уникальной": 7407,
      "временем": 7408,
      "тренировок": 7409,
      "метанола": 7410,
      "космонавтика": 7411,
      "двигать": 7412,
      "корабль": 7413,
      "второе": 7414,
      "тонштейне": 7415,
      "physics": 7416,
      "physiology": 7417,
      "начинают": 7418,
      "месторождении": 7419,
      "высвобождения": 7420,
      "приоритетов": 7421,
      "gaf": 7422,
      "ommat": 7423,
      "subelli": 7424,
      "змеиных": 7425,
      "иллю": 7426,
      "идеи": 7427,
      "сформировать": 7428,
      "шкалу": 7429,
      "копий": 7430,
      "наддува": 7431,
      "толщи": 7432,
      "запасают": 7433,
      "непарный": 7434,
      "содержится": 7435,
      "гибель": 7436,
      "видим": 7437,
      "педагогов": 7438,
      "приглашение": 7439,
      "столько": 7440,
      "туризма": 7441,
      "отмечают": 7442,
      "отметила": 7443,
      "авторам": 7444,
      "полуостров": 7445,
      "трофии": 7446,
      "экстракты": 7447,
      "методики": 7448,
      "диабете": 7449,
      "монолитными": 7450,
      "гидроксида": 7451,
      "эндемиков": 7452,
      "рубцевания": 7453,
      "надежность": 7454,
      "предотвраща": 7455,
      "подчеркивает": 7456,
      "расстройствами": 7457,
      "инфекциями": 7458,
      "иркутск": 7459,
      "библиотеки": 7460,
      "конвергентной": 7461,
      "day": 7462,
      "укладки": 7463,
      "щербакова": 7464,
      "лимфа": 7465,
      "театр": 7466,
      "теряет": 7467,
      "месяцев": 7468,
      "деловой": 7469,
      "разгонного": 7470,
      "разгонным": 7471,
      "столице": 7472,
      "жидкости": 7473,
      "фондов": 7474,
      "фондом": 7475,
      "расщеп": 7476,
      "повлияло": 7477,
      "сырцов": 7478,
      "коллективу": 7479,
      "коллективов": 7480,
      "патологий": 7481,
      "описывает": 7482,
      "описанные": 7483,
      "территорий": 7484,
      "территориях": 7485,
      "опухолевых": 7486,
      "отличается": 7487,
      "находящиеся": 7488,
      "амидаза": 7489,
      "оптимизация": 7490,
      "мерзлота": 7491,
      "адаптация": 7492,
      "ребятам": 7493,
      "возбудитель": 7494,
      "возбудителя": 7495,
      "персонализированная": 7496,
      "немелкоклеточного": 7497,
      "materi": 7498,
      "xix": 7499,
      "брю": 7500,
      "вднх": 7501,
      "вносят": 7502,
      "здова": 7503,
      "семьях": 7504,
      "районах": 7505,
      "команда": 7506,
      "накопление": 7507,
      "робото": 7508,
      "режим": 7509,
      "рекоменду": 7510,
      "рекомендации": 7511,
      "капсулу": 7512,
      "михаил": 7513,
      "заявки": 7514,
      "заседания": 7515,
      "неинвазив": 7516,
      "дефицитом": 7517,
      "гипертрофии": 7518,
      "гипотезы": 7519,
      "борисова": 7520,
      "разделенных": 7521,
      "размеров": 7522,
      "выставки": 7523,
      "ганглиев": 7524,
      "причиной": 7525,
      "привлека": 7526,
      "извержения": 7527,
      "путиным": 7528,
      "подписан": 7529,
      "нуклео": 7530,
      "нуклеус": 7531,
      "рассмотр": 7532,
      "расстоянии": 7533,
      "экстремо": 7534,
      "переломов": 7535,
      "платформу": 7536,
      "ключительно": 7537,
      "диалога": 7538,
      "письмо": 7539,
      "оставался": 7540,
      "повышенной": 7541,
      "династий": 7542,
      "лингви": 7543,
      "атмосферу": 7544,
      "атмосферное": 7545,
      "встречается": 7546,
      "новосибирск": 7547,
      "сохраняет": 7548,
      "выполняют": 7549,
      "охлаждения": 7550,
      "урбанизи": 7551,
      "неврологии": 7552,
      "финансирование": 7553,
      "выращивания": 7554,
      "напоминает": 7555,
      "документации": 7556,
      "ситуаций": 7557,
      "серьезные": 7558,
      "атрофии": 7559,
      "банк": 7560,
      "океан": 7561,
      "съем": 7562,
      "спариванием": 7563,
      "свертываемо": 7564,
      "указывает": 7565,
      "родителей": 7566,
      "поезд": 7567,
      "теплолюби": 7568,
      "теоретической": 7569,
      "легочного": 7570,
      "заверши": 7571,
      "занятиях": 7572,
      "заповедника": 7573,
      "заповедник": 7574,
      "некодирующих": 7575,
      "социальных": 7576,
      "развертке": 7577,
      "вирусов": 7578,
      "привлечения": 7579,
      "избирательно": 7580,
      "духовного": 7581,
      "желтый": 7582,
      "предварительно": 7583,
      "поддержания": 7584,
      "разработку": 7585,
      "разработчик": 7586,
      "женщин": 7587,
      "архитекту": 7588,
      "курганов": 7589,
      "европы": 7590,
      "экспертное": 7591,
      "регистрация": 7592,
      "сотрудничества": 7593,
      "изменяется": 7594,
      "глубже": 7595,
      "русскоязычных": 7596,
      "реализуется": 7597,
      "памятник": 7598,
      "сообщила": 7599,
      "комбинированное": 7600,
      "колебания": 7601,
      "партнеров": 7602,
      "сплайсинговых": 7603,
      "сплайсинговые": 7604,
      "характеристики": 7605,
      "авиация": 7606,
      "злокачественных": 7607,
      "остеопороза": 7608,
      "загрязнен": 7609,
      "tardisphaera": 7610,
      "today": 7611,
      "абсолют": 7612,
      "ареала": 7613,
      "дневной": 7614,
      "имитиру": 7615,
      "мэг": 7616,
      "означает": 7617,
      "уральского": 7618,
      "усиление": 7619,
      "ядовитых": 7620,
      "находок": 7621,
      "назначен": 7622,
      "листьях": 7623,
      "категори": 7624,
      "тимофеев": 7625,
      "вычислений": 7626,
      "выдыхаемом": 7627,
      "досточти": 7628,
      "препятствует": 7629,
      "пещерные": 7630,
      "принадлежит": 7631,
      "избыточ": 7632,
      "стоимость": 7633,
      "середине": 7634,
      "мусором": 7635,
      "конкретной": 7636,
      "консервативных": 7637,
      "генерировать": 7638,
      "собственное": 7639,
      "периода": 7640,
      "ценностям": 7641,
      "скандинав": 7642,
      "образовались": 7643,
      "альбумином": 7644,
      "экзосфе": 7645,
      "параметрами": 7646,
      "объявленного": 7647,
      "воспроизводит": 7648,
      "чернышевского": 7649,
      "антибиотиков": 7650,
      "жизненно": 7651,
      "наибольшее": 7652,
      "ионосфера": 7653,
      "реализовать": 7654,
      "углеродных": 7655,
      "конструкций": 7656,
      "lift": 7657,
      "критически": 7658,
      "стерильных": 7659,
      "вовлеченных": 7660,
      "трехмерную": 7661,
      "симптомами": 7662,
      "интерпретации": 7663,
      "пилотируемого": 7664,
      "масштабные": 7665,
      "олеогеля": 7666,
      "мелководье": 7667,
      "музыкальный": 7668,
      "чрезвычайно": 7669,
      "предшественников": 7670,
      "вьетнама": 7671,
      "юбилейный": 7672,
      "мочеточника": 7673,
      "подвижности": 7674,
      "краснодарском": 7675,
      "официальном": 7676,
      "конференции": 7677,
      "appli": 7678,
      "exp": 7679,
      "freepi": 7680,
      "obliqu": 7681,
      "part": 7682,
      "ацидо": 7683,
      "звоно": 7684,
      "ярослав": 7685,
      "посадки": 7686,
      "постановщи": 7687,
      "реконструировать": 7688,
      "кирпичей": 7689,
      "касается": 7690,
      "обструктивной": 7691,
      "заключается": 7692,
      "невесо": 7693,
      "нестабильной": 7694,
      "проходили": 7695,
      "пропускают": 7696,
      "протестировали": 7697,
      "декабря": 7698,
      "гиперактив": 7699,
      "исчез": 7700,
      "разборные": 7701,
      "выбросов": 7702,
      "вырабатывают": 7703,
      "стадиях": 7704,
      "весьма": 7705,
      "преодо": 7706,
      "приимчи": 7707,
      "приступов": 7708,
      "прикладной": 7709,
      "пущино": 7710,
      "мутантных": 7711,
      "инъекции": 7712,
      "щелочи": 7713,
      "беспозвоно": 7714,
      "расчетов": 7715,
      "базальных": 7716,
      "бурятия": 7717,
      "церемонии": 7718,
      "экспози": 7719,
      "перекись": 7720,
      "позднее": 7721,
      "артефак": 7722,
      "говорят": 7723,
      "положительных": 7724,
      "стартовый": 7725,
      "блеомицина": 7726,
      "chloris": 7727,
      "многолетнемерзлых": 7728,
      "маргариты": 7729,
      "самостоятельно": 7730,
      "psych": 7731,
      "тысячелетии": 7732,
      "кремль": 7733,
      "калмыцкой": 7734,
      "стимуляцией": 7735,
      "однопозиционной": 7736,
      "спонтанные": 7737,
      "магнитоэнцефало": 7738,
      "пояснил": 7739,
      "профилактики": 7740,
      "партнерами": 7741,
      "опросник": 7742,
      "сценарий": 7743,
      "предусмотренных": 7744,
      "предусматривающих": 7745,
      "альтернативой": 7746,
      "advances": 7747,
      "medicine": 7748,
      "фантасти": 7749,
      "эрмитажа": 7750,
      "chemistry": 7751,
      "тиоредоксинредуктазы": 7752,
      "вдохнов": 7753,
      "ухудшению": 7754,
      "департамента": 7755,
      "cattien": 7756,
      "fusifor": 7757,
      "micro": 7758,
      "nannochloris": 7759,
      "reports": 7760,
      "system": 7761,
      "адрес": 7762,
      "агафо": 7763,
      "алюминия": 7764,
      "агрега": 7765,
      "впоследствии": 7766,
      "гэотар": 7767,
      "кворума": 7768,
      "мтднк": 7769,
      "младший": 7770,
      "осозна": 7771,
      "справиться": 7772,
      "укусов": 7773,
      "указывают": 7774,
      "христиан": 7775,
      "шорт": 7776,
      "эстети": 7777,
      "яйцекле": 7778,
      "нанес": 7779,
      "наоборот": 7780,
      "пообщаться": 7781,
      "послушать": 7782,
      "погреба": 7783,
      "темозоло": 7784,
      "томографии": 7785,
      "минуты": 7786,
      "обзора": 7787,
      "диссоциации": 7788,
      "задействова": 7789,
      "сосредо": 7790,
      "деловая": 7791,
      "развлека": 7792,
      "преподава": 7793,
      "галимжан": 7794,
      "кубических": 7795,
      "приходится": 7796,
      "избави": 7797,
      "дускаев": 7798,
      "англий": 7799,
      "антаркти": 7800,
      "желудо": 7801,
      "перкарбона": 7802,
      "башмакова": 7803,
      "неймарк": 7804,
      "опустыни": 7805,
      "экземпля": 7806,
      "ative": 7807,
      "минздрава": 7808,
      "карьере": 7809,
      "микроглии": 7810,
      "факультета": 7811,
      "антиоксидан": 7812,
      "добровольцев": 7813,
      "круглого": 7814,
      "белозерского": 7815,
      "psoidea": 7816,
      "четырёх": 7817,
      "глюкозидазы": 7818,
      "telegram": 7819,
      "симптомов": 7820,
      "тимирязева": 7821,
      "scientific": 7822,
      "ежедневно": 7823,
      "review": 7824,
      "ommatogammarus": 7825,
      "subellipsoidea": 7826,
      "полуострове": 7827,
      "materials": 7828,
      "теплолюбивых": 7829,
      "досточтимый": 7830,
      "applied": 7831,
      "freepik": 7832,
      "obliquus": 7833,
      "магнитоэнцефалограммы": 7834,
      "cattiensis": 7835,
      "fusiformis": 7836,
      "3d": 7837,
      "ab": 7838,
      "bin": 7839,
      "cel": 7840,
      "cri": 7841,
      "csur": 7842,
      "dk": 7843,
      "ey": 7844,
      "eut": 7845,
      "f2": 7846,
      "fro": 7847,
      "fac": 7848,
      "fla": 7849,
      "gy": 7850,
      "gator": 7851,
      "gan": 7852,
      "gres": 7853,
      "gammarus": 7854,
      "hi": 7855,
      "im": 7856,
      "iat": 7857,
      "ili": 7858,
      "iub": 7859,
      "idae": 7860,
      "jar": 7861,
      "lace": 7862,
      "leng": 7863,
      "mb": 7864,
      "mn": 7865,
      "man": 7866,
      "nti": 7867,
      "npr": 7868,
      "otr": 7869,
      "pe": 7870,
      "pu": 7871,
      "pat": 7872,
      "pro": 7873,
      "pica": 7874,
      "pdk": 7875,
      "ric": 7876,
      "rae": 7877,
      "rak": 7878,
      "sn": 7879,
      "su": 7880,
      "sac": 7881,
      "sus": 7882,
      "ty": 7883,
      "tium": 7884,
      "tast": 7885,
      "tters": 7886,
      "uda": 7887,
      "ve": 7888,
      "vio": 7889,
      "xv": 7890,
      "xx": 7891,
      "xvi": 7892,
      "xxi": 7893,
      "yces": 7894,
      "ylog": 7895,
      "ам": 7896,
      "ах": 7897,
      "ано": 7898,
      "але": 7899,
      "ата": 7900,
      "аза": 7901,
      "аку": 7902,
      "аби": 7903,
      "апол": 7904,
      "адре": 7905,
      "ассо": 7906,
      "адми": 7907,
      "авок": 7908,
      "бен": 7909,
      "бова": 7910,
      "бет": 7911,
      "браз": 7912,
      "бного": 7913,
      "бля": 7914,
      "бского": 7915,
      "бкина": 7916,
      "брази": 7917,
      "бяков": 7918,
      "бдена": 7919,
      "вся": 7920,
      "впер": 7921,
      "вши": 7922,
      "впол": 7923,
      "вную": 7924,
      "втори": 7925,
      "вход": 7926,
      "входи": 7927,
      "вкла": 7928,
      "ввели": 7929,
      "врач": 7930,
      "вступа": 7931,
      "впеча": 7932,
      "вперед": 7933,
      "вплет": 7934,
      "вчера": 7935,
      "гр": 7936,
      "гле": 7937,
      "гет": 7938,
      "гского": 7939,
      "гмента": 7940,
      "греш": 7941,
      "гментов": 7942,
      "дж": 7943,
      "дё": 7944,
      "дта": 7945,
      "дво": 7946,
      "дного": 7947,
      "днов": 7948,
      "дже": 7949,
      "дря": 7950,
      "дное": 7951,
      "дению": 7952,
      "дник": 7953,
      "джер": 7954,
      "ее": 7955,
      "еи": 7956,
      "ете": 7957,
      "ети": 7958,
      "еги": 7959,
      "едоб": 7960,
      "ещен": 7961,
      "егор": 7962,
      "жного": 7963,
      "жды": 7964,
      "жными": 7965,
      "жэн": 7966,
      "зю": 7967,
      "зре": 7968,
      "зне": 7969,
      "зля": 7970,
      "злов": 7971,
      "ий": 7972,
      "ида": 7973,
      "иско": 7974,
      "ише": 7975,
      "ился": 7976,
      "ительный": 7977,
      "игро": 7978,
      "игр": 7979,
      "йки": 7980,
      "йских": 7981,
      "кт": 7982,
      "кно": 7983,
      "ква": 7984,
      "кет": 7985,
      "кви": 7986,
      "кем": 7987,
      "клу": 7988,
      "кция": 7989,
      "квали": 7990,
      "лкой": 7991,
      "лтен": 7992,
      "лновой": 7993,
      "мл": 7994,
      "мне": 7995,
      "мби": 7996,
      "мск": 7997,
      "мхи": 7998,
      "мении": 7999,
      "мбри": 8000,
      "мья": 8001,
      "мголь": 8002,
      "нс": 8003,
      "нтов": 8004,
      "нцев": 8005,
      "нбург": 8006,
      "ннои": 8007,
      "нований": 8008,
      "оф": 8009,
      "оны": 8010,
      "оло": 8011,
      "оде": 8012,
      "онов": 8013,
      "ому": 8014,
      "остави": 8015,
      "опто": 8016,
      "оплодо": 8017,
      "пь": 8018,
      "пя": 8019,
      "пче": 8020,
      "праз": 8021,
      "пры": 8022,
      "ппу": 8023,
      "рэ": 8024,
      "рта": 8025,
      "рло": 8026,
      "рма": 8027,
      "рное": 8028,
      "рению": 8029,
      "рнали": 8030,
      "рено": 8031,
      "рцова": 8032,
      "сё": 8033,
      "сци": 8034,
      "сви": 8035,
      "смы": 8036,
      "сня": 8037,
      "скры": 8038,
      "сжа": 8039,
      "сца": 8040,
      "снова": 8041,
      "сдвига": 8042,
      "слями": 8043,
      "схва": 8044,
      "сближа": 8045,
      "сформули": 8046,
      "тны": 8047,
      "тку": 8048,
      "тность": 8049,
      "трова": 8050,
      "тдегидро": 8051,
      "ун": 8052,
      "уди": 8053,
      "упа": 8054,
      "уса": 8055,
      "уби": 8056,
      "убе": 8057,
      "усь": 8058,
      "упра": 8059,
      "уха": 8060,
      "улу": 8061,
      "усы": 8062,
      "услож": 8063,
      "упря": 8064,
      "унаслед": 8065,
      "ухода": 8066,
      "упоря": 8067,
      "фы": 8068,
      "фло": 8069,
      "флю": 8070,
      "хте": 8071,
      "хова": 8072,
      "хвой": 8073,
      "хранения": 8074,
      "хстана": 8075,
      "цве": 8076,
      "цем": 8077,
      "цар": 8078,
      "чку": 8079,
      "чья": 8080,
      "чнике": 8081,
      "чжэн": 8082,
      "ште": 8083,
      "шени": 8084,
      "шри": 8085,
      "шку": 8086,
      "шков": 8087,
      "шке": 8088,
      "щением": 8089,
      "ься": 8090,
      "эп": 8091,
      "эро": 8092,
      "эми": 8093,
      "эла": 8094,
      "эры": 8095,
      "эску": 8096,
      "энь": 8097,
      "эману": 8098,
      "эмиссии": 8099,
      "эмбри": 8100,
      "юг": 8101,
      "юге": 8102,
      "яд": 8103,
      "яру": 8104,
      "яза": 8105,
      "янова": 8106,
      "ядре": 8107,
      "ящие": 8108,
      "ёд": 8109,
      "ён": 8110,
      "стр": 8111,
      "стова": 8112,
      "стся": 8113,
      "стку": 8114,
      "стность": 8115,
      "овос": 8116,
      "ового": 8117,
      "овчин": 8118,
      "ене": 8119,
      "енной": 8120,
      "еного": 8121,
      "рат": 8122,
      "рава": 8123,
      "радиа": 8124,
      "ночной": 8125,
      "ноклеточ": 8126,
      "ночь": 8127,
      "кос": 8128,
      "коль": 8129,
      "коже": 8130,
      "комеди": 8131,
      "кожа": 8132,
      "кобри": 8133,
      "костерои": 8134,
      "кохан": 8135,
      "кобяков": 8136,
      "козлов": 8137,
      "нач": 8138,
      "нави": 8139,
      "насле": 8140,
      "натор": 8141,
      "направи": 8142,
      "надея": 8143,
      "нашим": 8144,
      "наконе": 8145,
      "наработки": 8146,
      "насчиты": 8147,
      "напал": 8148,
      "рош": 8149,
      "роду": 8150,
      "росту": 8151,
      "рождаются": 8152,
      "нили": 8153,
      "нири": 8154,
      "нических": 8155,
      "нистра": 8156,
      "нислав": 8157,
      "нированной": 8158,
      "лиц": 8159,
      "лили": 8160,
      "лиди": 8161,
      "линии": 8162,
      "лировали": 8163,
      "лизова": 8164,
      "личин": 8165,
      "лидоми": 8166,
      "личности": 8167,
      "литви": 8168,
      "ныне": 8169,
      "ныря": 8170,
      "попро": 8171,
      "попов": 8172,
      "потом": 8173,
      "пожа": 8174,
      "посту": 8175,
      "постра": 8176,
      "полови": 8177,
      "подели": 8178,
      "поступ": 8179,
      "посред": 8180,
      "порой": 8181,
      "постеп": 8182,
      "появляется": 8183,
      "появление": 8184,
      "поработать": 8185,
      "поэтап": 8186,
      "поучаствовать": 8187,
      "поместили": 8188,
      "погреш": 8189,
      "реци": 8190,
      "речи": 8191,
      "резо": 8192,
      "рестав": 8193,
      "релик": 8194,
      "регенерировать": 8195,
      "тел": 8196,
      "теми": 8197,
      "теме": 8198,
      "теста": 8199,
      "темы": 8200,
      "тесь": 8201,
      "теше": 8202,
      "тестов": 8203,
      "теат": 8204,
      "темой": 8205,
      "тепля": 8206,
      "течением": 8207,
      "городов": 8208,
      "льна": 8209,
      "льмо": 8210,
      "льма": 8211,
      "льдо": 8212,
      "льчи": 8213,
      "льность": 8214,
      "льше": 8215,
      "льникова": 8216,
      "лев": 8217,
      "лео": 8218,
      "леса": 8219,
      "лету": 8220,
      "леген": 8221,
      "лесов": 8222,
      "летя": 8223,
      "левые": 8224,
      "левой": 8225,
      "лесной": 8226,
      "лесного": 8227,
      "лечебной": 8228,
      "тое": 8229,
      "точи": 8230,
      "точек": 8231,
      "тал": 8232,
      "тания": 8233,
      "таком": 8234,
      "таций": 8235,
      "тацией": 8236,
      "тарей": 8237,
      "такую": 8238,
      "такими": 8239,
      "таковой": 8240,
      "талидоми": 8241,
      "кино": 8242,
      "кирил": 8243,
      "кара": 8244,
      "кале": 8245,
      "кару": 8246,
      "кане": 8247,
      "кату": 8248,
      "калин": 8249,
      "каште": 8250,
      "миче": 8251,
      "митин": 8252,
      "мистери": 8253,
      "мишени": 8254,
      "тил": 8255,
      "тией": 8256,
      "тином": 8257,
      "типы": 8258,
      "тится": 8259,
      "тичность": 8260,
      "тикостерои": 8261,
      "ерия": 8262,
      "лог": 8263,
      "лое": 8264,
      "логра": 8265,
      "ложения": 8266,
      "лоида": 8267,
      "рии": 8268,
      "рит": 8269,
      "риса": 8270,
      "рису": 8271,
      "риков": 8272,
      "риту": 8273,
      "риот": 8274,
      "рический": 8275,
      "оби": 8276,
      "ободи": 8277,
      "обстанов": 8278,
      "общая": 8279,
      "обработки": 8280,
      "облик": 8281,
      "обзор": 8282,
      "обяза": 8283,
      "мое": 8284,
      "мога": 8285,
      "мочи": 8286,
      "модер": 8287,
      "мония": 8288,
      "монова": 8289,
      "монах": 8290,
      "морф": 8291,
      "мостью": 8292,
      "монаше": 8293,
      "дие": 8294,
      "диен": 8295,
      "дива": 8296,
      "диски": 8297,
      "диктив": 8298,
      "дитер": 8299,
      "диких": 8300,
      "дипло": 8301,
      "дистан": 8302,
      "дисков": 8303,
      "диэтиленгли": 8304,
      "дифосфата": 8305,
      "димся": 8306,
      "вай": 8307,
      "вал": 8308,
      "вам": 8309,
      "вана": 8310,
      "васи": 8311,
      "ваем": 8312,
      "вакова": 8313,
      "валось": 8314,
      "васили": 8315,
      "вающую": 8316,
      "ватдегидро": 8317,
      "вому": 8318,
      "воспо": 8319,
      "воск": 8320,
      "волы": 8321,
      "водах": 8322,
      "вольное": 8323,
      "дали": 8324,
      "дание": 8325,
      "давне": 8326,
      "давали": 8327,
      "руки": 8328,
      "русь": 8329,
      "руемых": 8330,
      "руемые": 8331,
      "руватдегидро": 8332,
      "тьев": 8333,
      "тьева": 8334,
      "цинов": 8335,
      "цитов": 8336,
      "цибу": 8337,
      "ципли": 8338,
      "цирующих": 8339,
      "циеи": 8340,
      "честью": 8341,
      "зали": 8342,
      "запо": 8343,
      "зало": 8344,
      "засто": 8345,
      "зача": 8346,
      "зания": 8347,
      "замер": 8348,
      "запол": 8349,
      "заправ": 8350,
      "застави": 8351,
      "замет": 8352,
      "закан": 8353,
      "заранее": 8354,
      "заслу": 8355,
      "задержи": 8356,
      "зацией": 8357,
      "закре": 8358,
      "замене": 8359,
      "забайкаль": 8360,
      "затяги": 8361,
      "сии": 8362,
      "сит": 8363,
      "силу": 8364,
      "сильных": 8365,
      "сильную": 8366,
      "симонова": 8367,
      "сивакова": 8368,
      "учё": 8369,
      "учусь": 8370,
      "ученого": 8371,
      "лаба": 8372,
      "лапы": 8373,
      "латин": 8374,
      "лариса": 8375,
      "неза": 8376,
      "неиз": 8377,
      "непов": 8378,
      "некой": 8379,
      "недели": 8380,
      "невероят": 8381,
      "неяс": 8382,
      "несет": 8383,
      "непатоген": 8384,
      "неконтролиру": 8385,
      "неизвестно": 8386,
      "несме": 8387,
      "непросто": 8388,
      "небольшие": 8389,
      "небольших": 8390,
      "небольшого": 8391,
      "несрочной": 8392,
      "неожи": 8393,
      "некультиви": 8394,
      "некоторыми": 8395,
      "непреднамер": 8396,
      "нехристиан": 8397,
      "непосред": 8398,
      "недавне": 8399,
      "мех": 8400,
      "мемно": 8401,
      "метрии": 8402,
      "мелового": 8403,
      "скои": 8404,
      "пром": 8405,
      "просле": 8406,
      "проще": 8407,
      "прогу": 8408,
      "продов": 8409,
      "прояв": 8410,
      "прочных": 8411,
      "просты": 8412,
      "прочита": 8413,
      "проконтро": 8414,
      "проявля": 8415,
      "простой": 8416,
      "пропита": 8417,
      "проходят": 8418,
      "прослав": 8419,
      "прочности": 8420,
      "простую": 8421,
      "продю": 8422,
      "продлить": 8423,
      "прочтение": 8424,
      "продвигать": 8425,
      "май": 8426,
      "мах": 8427,
      "маль": 8428,
      "мато": 8429,
      "маков": 8430,
      "маке": 8431,
      "малей": 8432,
      "мального": 8433,
      "маску": 8434,
      "машин": 8435,
      "макаре": 8436,
      "макет": 8437,
      "сон": 8438,
      "соту": 8439,
      "социо": 8440,
      "сокур": 8441,
      "созвез": 8442,
      "сочные": 8443,
      "соотношению": 8444,
      "деи": 8445,
      "дем": 8446,
      "дете": 8447,
      "дезо": 8448,
      "гие": 8449,
      "гината": 8450,
      "бота": 8451,
      "бору": 8452,
      "боспор": 8453,
      "ботина": 8454,
      "боевых": 8455,
      "болтен": 8456,
      "исе": 8457,
      "исклю": 8458,
      "исключа": 8459,
      "исхода": 8460,
      "исключительно": 8461,
      "стия": 8462,
      "стина": 8463,
      "стических": 8464,
      "стические": 8465,
      "стичность": 8466,
      "разного": 8467,
      "разры": 8468,
      "разной": 8469,
      "разби": 8470,
      "разную": 8471,
      "разлага": 8472,
      "разии": 8473,
      "размера": 8474,
      "разбира": 8475,
      "развед": 8476,
      "разрешение": 8477,
      "разместили": 8478,
      "рыб": 8479,
      "рыбы": 8480,
      "рыбов": 8481,
      "рынка": 8482,
      "вий": 8483,
      "вино": 8484,
      "вице": 8485,
      "виктор": 8486,
      "виана": 8487,
      "винар": 8488,
      "височные": 8489,
      "выре": 8490,
      "выпа": 8491,
      "выпу": 8492,
      "выну": 8493,
      "вышли": 8494,
      "выпуска": 8495,
      "вынуж": 8496,
      "выводы": 8497,
      "выхода": 8498,
      "вылечи": 8499,
      "выделить": 8500,
      "выборе": 8501,
      "выработку": 8502,
      "стам": 8503,
      "стары": 8504,
      "сталли": 8505,
      "старых": 8506,
      "стасия": 8507,
      "станислав": 8508,
      "стариков": 8509,
      "веков": 8510,
      "ведет": 8511,
      "лял": 8512,
      "ляться": 8513,
      "ляемо": 8514,
      "лялись": 8515,
      "лятся": 8516,
      "дона": 8517,
      "дого": 8518,
      "доров": 8519,
      "дону": 8520,
      "домов": 8521,
      "допуска": 8522,
      "доклад": 8523,
      "дорабаты": 8524,
      "донского": 8525,
      "доступе": 8526,
      "дольше": 8527,
      "пресси": 8528,
      "предиктив": 8529,
      "галь": 8530,
      "гага": 8531,
      "гаджи": 8532,
      "пав": 8533,
      "паль": 8534,
      "пару": 8535,
      "паска": 8536,
      "пание": 8537,
      "паемых": 8538,
      "паулу": 8539,
      "саи": 8540,
      "сава": 8541,
      "саду": 8542,
      "пел": 8543,
      "пеще": 8544,
      "пепло": 8545,
      "песца": 8546,
      "пепел": 8547,
      "купа": 8548,
      "культа": 8549,
      "кудря": 8550,
      "кузне": 8551,
      "менко": 8552,
      "менского": 8553,
      "ментом": 8554,
      "ментьева": 8555,
      "приш": 8556,
      "прибли": 8557,
      "присоеди": 8558,
      "пригод": 8559,
      "приводи": 8560,
      "присла": 8561,
      "пригорода": 8562,
      "природе": 8563,
      "приступи": 8564,
      "приобрета": 8565,
      "природы": 8566,
      "причерно": 8567,
      "прикос": 8568,
      "природу": 8569,
      "слепо": 8570,
      "слевого": 8571,
      "нове": 8572,
      "новую": 8573,
      "новгорода": 8574,
      "новыми": 8575,
      "новгородского": 8576,
      "тыва": 8577,
      "тельны": 8578,
      "изучены": 8579,
      "избав": 8580,
      "следовательно": 8581,
      "суть": 8582,
      "сухо": 8583,
      "суднов": 8584,
      "публикова": 8585,
      "путем": 8586,
      "путей": 8587,
      "путина": 8588,
      "путеше": 8589,
      "ствование": 8590,
      "сток": 8591,
      "стола": 8592,
      "столов": 8593,
      "столы": 8594,
      "жива": 8595,
      "жители": 8596,
      "жителя": 8597,
      "жителей": 8598,
      "живые": 8599,
      "живает": 8600,
      "жинири": 8601,
      "селе": 8602,
      "сева": 8603,
      "села": 8604,
      "сесси": 8605,
      "сечения": 8606,
      "семест": 8607,
      "сетей": 8608,
      "седь": 8609,
      "сегмента": 8610,
      "бивне": 8611,
      "битцев": 8612,
      "хол": 8613,
      "ходы": 8614,
      "хочу": 8615,
      "хоноги": 8616,
      "ковые": 8617,
      "ковом": 8618,
      "ковыми": 8619,
      "тую": 8620,
      "ровке": 8621,
      "ровой": 8622,
      "фона": 8623,
      "фори": 8624,
      "фоне": 8625,
      "форы": 8626,
      "фоман": 8627,
      "фокальной": 8628,
      "мыша": 8629,
      "мыслов": 8630,
      "ранных": 8631,
      "ранних": 8632,
      "раннего": 8633,
      "раннехристиан": 8634,
      "муни": 8635,
      "мущения": 8636,
      "ктистова": 8637,
      "отда": 8638,
      "отмы": 8639,
      "отвер": 8640,
      "отря": 8641,
      "откро": 8642,
      "отрав": 8643,
      "отказыва": 8644,
      "отлож": 8645,
      "отклады": 8646,
      "откуда": 8647,
      "отходов": 8648,
      "отложения": 8649,
      "логию": 8650,
      "инных": 8651,
      "инфор": 8652,
      "интера": 8653,
      "инсуль": 8654,
      "инкина": 8655,
      "инжинири": 8656,
      "чины": 8657,
      "чить": 8658,
      "чистые": 8659,
      "чат": 8660,
      "чая": 8661,
      "часов": 8662,
      "частей": 8663,
      "подно": 8664,
      "подбора": 8665,
      "подвод": 8666,
      "подводит": 8667,
      "подобра": 8668,
      "подбира": 8669,
      "подраста": 8670,
      "подписи": 8671,
      "подъе": 8672,
      "конф": 8673,
      "конфе": 8674,
      "контак": 8675,
      "концу": 8676,
      "конгского": 8677,
      "кондитер": 8678,
      "пили": 8679,
      "пика": 8680,
      "пигментов": 8681,
      "пируватдегидро": 8682,
      "научную": 8683,
      "научным": 8684,
      "нужен": 8685,
      "нутые": 8686,
      "рабочая": 8687,
      "антен": 8688,
      "фей": 8689,
      "февра": 8690,
      "вернике": 8691,
      "бета": 8692,
      "бессо": 8693,
      "беспла": 8694,
      "бекистана": 8695,
      "бехте": 8696,
      "автори": 8697,
      "авток": 8698,
      "авторов": 8699,
      "любо": 8700,
      "люции": 8701,
      "любов": 8702,
      "любой": 8703,
      "генных": 8704,
      "генного": 8705,
      "предка": 8706,
      "предска": 8707,
      "предмет": 8708,
      "ученый": 8709,
      "дыр": 8710,
      "дыра": 8711,
      "ктивных": 8712,
      "ровая": 8713,
      "ровало": 8714,
      "ровался": 8715,
      "собственные": 8716,
      "перви": 8717,
      "пермского": 8718,
      "перфоман": 8719,
      "торф": 8720,
      "гунов": 8721,
      "гуму": 8722,
      "губер": 8723,
      "губкина": 8724,
      "фигу": 8725,
      "фильные": 8726,
      "фиджи": 8727,
      "бари": 8728,
      "балови": 8729,
      "балли": 8730,
      "балка": 8731,
      "батарей": 8732,
      "рям": 8733,
      "шило": 8734,
      "шишли": 8735,
      "зировать": 8736,
      "зимов": 8737,
      "зируют": 8738,
      "зистых": 8739,
      "учащиеся": 8740,
      "кевича": 8741,
      "кезля": 8742,
      "ственная": 8743,
      "ственное": 8744,
      "пово": 8745,
      "повяз": 8746,
      "науку": 8747,
      "одных": 8748,
      "одну": 8749,
      "одних": 8750,
      "ленный": 8751,
      "ленном": 8752,
      "ленными": 8753,
      "центы": 8754,
      "ценными": 8755,
      "бума": 8756,
      "бутира": 8757,
      "будем": 8758,
      "техе": 8759,
      "нейров": 8760,
      "совые": 8761,
      "биофизи": 8762,
      "биофизики": 8763,
      "биотехнологического": 8764,
      "биоактивных": 8765,
      "биохимической": 8766,
      "биоактивными": 8767,
      "биоинфор": 8768,
      "биотехе": 8769,
      "полнения": 8770,
      "полёт": 8771,
      "обсудили": 8772,
      "обсудят": 8773,
      "цело": 8774,
      "целей": 8775,
      "образной": 8776,
      "образный": 8777,
      "няя": 8778,
      "няют": 8779,
      "няющей": 8780,
      "право": 8781,
      "правые": 8782,
      "альным": 8783,
      "альном": 8784,
      "альное": 8785,
      "альными": 8786,
      "альфа": 8787,
      "альгината": 8788,
      "возле": 8789,
      "возвраща": 8790,
      "воздействия": 8791,
      "воздействуют": 8792,
      "возмущения": 8793,
      "держали": 8794,
      "клетке": 8795,
      "клетку": 8796,
      "клементьева": 8797,
      "ствам": 8798,
      "ствами": 8799,
      "доверия": 8800,
      "строя": 8801,
      "строить": 8802,
      "строится": 8803,
      "троиц": 8804,
      "осв": 8805,
      "осн": 8806,
      "осен": 8807,
      "ослаб": 8808,
      "казань": 8809,
      "казанского": 8810,
      "казахстана": 8811,
      "имплан": 8812,
      "исследовав": 8813,
      "исследованы": 8814,
      "исследованные": 8815,
      "исследователями": 8816,
      "исследованный": 8817,
      "опубликован": 8818,
      "шести": 8819,
      "проекту": 8820,
      "экраны": 8821,
      "экстр": 8822,
      "томск": 8823,
      "слоем": 8824,
      "слоями": 8825,
      "значно": 8826,
      "зоо": 8827,
      "зонах": 8828,
      "низкая": 8829,
      "низкий": 8830,
      "точка": 8831,
      "точности": 8832,
      "точке": 8833,
      "тках": 8834,
      "шала": 8835,
      "шагом": 8836,
      "шарло": 8837,
      "шарии": 8838,
      "технологических": 8839,
      "технологической": 8840,
      "технологические": 8841,
      "технологиями": 8842,
      "технологиям": 8843,
      "помог": 8844,
      "помогла": 8845,
      "пользу": 8846,
      "луна": 8847,
      "лунных": 8848,
      "крыму": 8849,
      "крысам": 8850,
      "крылья": 8851,
      "перей": 8852,
      "переключа": 8853,
      "передви": 8854,
      "перерабаты": 8855,
      "переработки": 8856,
      "перехода": 8857,
      "передвижение": 8858,
      "перевода": 8859,
      "перекалин": 8860,
      "стема": 8861,
      "активное": 8862,
      "исследованиями": 8863,
      "едини": 8864,
      "единым": 8865,
      "единому": 8866,
      "единицы": 8867,
      "грунт": 8868,
      "грунтов": 8869,
      "пласте": 8870,
      "скри": 8871,
      "щали": 8872,
      "щающих": 8873,
      "inte": 8874,
      "inscience": 8875,
      "грант": 8876,
      "гранту": 8877,
      "разработок": 8878,
      "жай": 8879,
      "жающую": 8880,
      "пыта": 8881,
      "университете": 8882,
      "проводной": 8883,
      "вреживает": 8884,
      "тяных": 8885,
      "ation": 8886,
      "геор": 8887,
      "герои": 8888,
      "способов": 8889,
      "способно": 8890,
      "способствует": 8891,
      "способами": 8892,
      "способствуют": 8893,
      "способствовало": 8894,
      "результатами": 8895,
      "нервную": 8896,
      "своему": 8897,
      "моделиру": 8898,
      "моделях": 8899,
      "моделями": 8900,
      "ruco": 8901,
      "сним": 8902,
      "снижен": 8903,
      "сницы": 8904,
      "снижением": 8905,
      "женный": 8906,
      "женная": 8907,
      "высот": 8908,
      "высотах": 8909,
      "высокими": 8910,
      "orans": 8911,
      "organ": 8912,
      "трек": 8913,
      "треков": 8914,
      "третий": 8915,
      "тремя": 8916,
      "ствующим": 8917,
      "страна": 8918,
      "страдания": 8919,
      "никак": 8920,
      "глад": 8921,
      "глазами": 8922,
      "создан": 8923,
      "создаст": 8924,
      "создают": 8925,
      "создавали": 8926,
      "создавая": 8927,
      "плоской": 8928,
      "вуз": 8929,
      "вуза": 8930,
      "одино": 8931,
      "одически": 8932,
      "ждений": 8933,
      "мышления": 8934,
      "мышья": 8935,
      "серы": 8936,
      "сертации": 8937,
      "серию": 8938,
      "сербского": 8939,
      "темную": 8940,
      "биологической": 8941,
      "развивать": 8942,
      "развитием": 8943,
      "арт": 8944,
      "имена": 8945,
      "сыворо": 8946,
      "облаков": 8947,
      "обладают": 8948,
      "действует": 8949,
      "параметров": 8950,
      "медицину": 8951,
      "нарушающие": 8952,
      "трического": 8953,
      "дрой": 8954,
      "дроздова": 8955,
      "карт": 8956,
      "карто": 8957,
      "карди": 8958,
      "карци": 8959,
      "карьер": 8960,
      "картина": 8961,
      "экспресси": 8962,
      "другим": 8963,
      "физтеха": 8964,
      "дарья": 8965,
      "эффективная": 8966,
      "эффективное": 8967,
      "ходь": 8968,
      "химически": 8969,
      "труда": 8970,
      "услов": 8971,
      "услы": 8972,
      "усваи": 8973,
      "ченное": 8974,
      "институтов": 8975,
      "номина": 8976,
      "евразии": 8977,
      "тивное": 8978,
      "объявля": 8979,
      "веществе": 8980,
      "основной": 8981,
      "основная": 8982,
      "ализации": 8983,
      "показано": 8984,
      "долгова": 8985,
      "белками": 8986,
      "получении": 8987,
      "жутся": 8988,
      "жущихся": 8989,
      "журнали": 8990,
      "государственных": 8991,
      "государственной": 8992,
      "государственные": 8993,
      "истощения": 8994,
      "сенсо": 8995,
      "организовы": 8996,
      "говещен": 8997,
      "молекула": 8998,
      "молекулами": 8999,
      "открыли": 9000,
      "открытом": 9001,
      "открывая": 9002,
      "открытой": 9003,
      "открытого": 9004,
      "открытием": 9005,
      "конкурсов": 9006,
      "особой": 9007,
      "летней": 9008,
      "восприя": 9009,
      "восприимчи": 9010,
      "синхрони": 9011,
      "кратера": 9012,
      "крахма": 9013,
      "красоту": 9014,
      "коллек": 9015,
      "металли": 9016,
      "метафоры": 9017,
      "космосом": 9018,
      "микробиологи": 9019,
      "микрофото": 9020,
      "микроорганизма": 9021,
[...]
